node {
  name: "global_step/Initializer/zeros"
  op: "Const"
  attr {
    key: "_class"
    value {
      list {
        s: "loc:@global_step"
      }
    }
  }
  attr {
    key: "_output_shapes"
    value {
      list {
        shape {
        }
      }
    }
  }
  attr {
    key: "dtype"
    value {
      type: DT_INT64
    }
  }
  attr {
    key: "value"
    value {
      tensor {
        dtype: DT_INT64
        tensor_shape {
        }
        int64_val: 0
      }
    }
  }
}
node {
  name: "global_step"
  op: "VariableV2"
  attr {
    key: "_class"
    value {
      list {
        s: "loc:@global_step"
      }
    }
  }
  attr {
    key: "_output_shapes"
    value {
      list {
        shape {
        }
      }
    }
  }
  attr {
    key: "container"
    value {
      s: ""
    }
  }
  attr {
    key: "dtype"
    value {
      type: DT_INT64
    }
  }
  attr {
    key: "shape"
    value {
      shape {
      }
    }
  }
  attr {
    key: "shared_name"
    value {
      s: ""
    }
  }
}
node {
  name: "global_step/Assign"
  op: "Assign"
  input: "global_step"
  input: "global_step/Initializer/zeros"
  attr {
    key: "T"
    value {
      type: DT_INT64
    }
  }
  attr {
    key: "_class"
    value {
      list {
        s: "loc:@global_step"
      }
    }
  }
  attr {
    key: "_output_shapes"
    value {
      list {
        shape {
        }
      }
    }
  }
  attr {
    key: "use_locking"
    value {
      b: true
    }
  }
  attr {
    key: "validate_shape"
    value {
      b: true
    }
  }
}
node {
  name: "global_step/read"
  op: "Identity"
  input: "global_step"
  attr {
    key: "T"
    value {
      type: DT_INT64
    }
  }
  attr {
    key: "_class"
    value {
      list {
        s: "loc:@global_step"
      }
    }
  }
  attr {
    key: "_output_shapes"
    value {
      list {
        shape {
        }
      }
    }
  }
}
node {
  name: "global_step/IsVariableInitialized"
  op: "IsVariableInitialized"
  input: "global_step"
  attr {
    key: "_class"
    value {
      list {
        s: "loc:@global_step"
      }
    }
  }
  attr {
    key: "_output_shapes"
    value {
      list {
        shape {
        }
      }
    }
  }
  attr {
    key: "dtype"
    value {
      type: DT_INT64
    }
  }
}
node {
  name: "global_step/cond/Switch"
  op: "Switch"
  input: "global_step/IsVariableInitialized"
  input: "global_step/IsVariableInitialized"
  attr {
    key: "T"
    value {
      type: DT_BOOL
    }
  }
  attr {
    key: "_output_shapes"
    value {
      list {
        shape {
        }
        shape {
        }
      }
    }
  }
}
node {
  name: "global_step/cond/switch_t"
  op: "Identity"
  input: "global_step/cond/Switch:1"
  attr {
    key: "T"
    value {
      type: DT_BOOL
    }
  }
  attr {
    key: "_output_shapes"
    value {
      list {
        shape {
        }
      }
    }
  }
}
node {
  name: "global_step/cond/switch_f"
  op: "Identity"
  input: "global_step/cond/Switch"
  attr {
    key: "T"
    value {
      type: DT_BOOL
    }
  }
  attr {
    key: "_output_shapes"
    value {
      list {
        shape {
        }
      }
    }
  }
}
node {
  name: "global_step/cond/pred_id"
  op: "Identity"
  input: "global_step/IsVariableInitialized"
  attr {
    key: "T"
    value {
      type: DT_BOOL
    }
  }
  attr {
    key: "_output_shapes"
    value {
      list {
        shape {
        }
      }
    }
  }
}
node {
  name: "global_step/cond/read"
  op: "Identity"
  input: "global_step/cond/read/Switch:1"
  attr {
    key: "T"
    value {
      type: DT_INT64
    }
  }
  attr {
    key: "_output_shapes"
    value {
      list {
        shape {
        }
      }
    }
  }
}
node {
  name: "global_step/cond/read/Switch"
  op: "RefSwitch"
  input: "global_step"
  input: "global_step/cond/pred_id"
  attr {
    key: "T"
    value {
      type: DT_INT64
    }
  }
  attr {
    key: "_class"
    value {
      list {
        s: "loc:@global_step"
      }
    }
  }
  attr {
    key: "_output_shapes"
    value {
      list {
        shape {
        }
        shape {
        }
      }
    }
  }
}
node {
  name: "global_step/cond/Switch_1"
  op: "Switch"
  input: "global_step/Initializer/zeros"
  input: "global_step/cond/pred_id"
  attr {
    key: "T"
    value {
      type: DT_INT64
    }
  }
  attr {
    key: "_class"
    value {
      list {
        s: "loc:@global_step"
      }
    }
  }
  attr {
    key: "_output_shapes"
    value {
      list {
        shape {
        }
        shape {
        }
      }
    }
  }
}
node {
  name: "global_step/cond/Merge"
  op: "Merge"
  input: "global_step/cond/Switch_1"
  input: "global_step/cond/read"
  attr {
    key: "N"
    value {
      i: 2
    }
  }
  attr {
    key: "T"
    value {
      type: DT_INT64
    }
  }
  attr {
    key: "_output_shapes"
    value {
      list {
        shape {
        }
        shape {
        }
      }
    }
  }
}
node {
  name: "global_step/add/y"
  op: "Const"
  attr {
    key: "_output_shapes"
    value {
      list {
        shape {
        }
      }
    }
  }
  attr {
    key: "dtype"
    value {
      type: DT_INT64
    }
  }
  attr {
    key: "value"
    value {
      tensor {
        dtype: DT_INT64
        tensor_shape {
        }
        int64_val: 0
      }
    }
  }
}
node {
  name: "global_step/add"
  op: "Add"
  input: "global_step/cond/Merge"
  input: "global_step/add/y"
  attr {
    key: "T"
    value {
      type: DT_INT64
    }
  }
  attr {
    key: "_output_shapes"
    value {
      list {
        shape {
        }
      }
    }
  }
}
node {
  name: "tensors/component_0"
  op: "Const"
  device: "/device:CPU:0"
  attr {
    key: "_output_shapes"
    value {
      list {
        shape {
          dim {
            size: 313
          }
        }
      }
    }
  }
  attr {
    key: "dtype"
    value {
      type: DT_DOUBLE
    }
  }
  attr {
    key: "value"
    value {
      tensor {
        dtype: DT_DOUBLE
        tensor_shape {
          dim {
            size: 313
          }
        }
        tensor_content: "#T\023Y\024\330\006\300\241yv\235C\375\003\300\036\237\331\341r\"\001\300#T\023Y\024\330\006\300^\201\313x\265D\030\300~\352\000\310\302\347H\277\261\033Q\351D\214\316\277\262\357b\246\177]\026\300w\302\252\206\336\360\004\300T\266\330s\310\370\035@a\002h\314\210\356\024@\202\215\257)\221\005-@\036\237\331\341r\"\001\300w\302\252\206\336\360\004\300\036\237\331\341r\"\001\300\251\0320.@p\376?\016\224\320\236\276\325\026@R\032%E\351f\336?\234\034\031\254,\245\276\277}w\344\375\177\246\n\300\244e\366\266\236\272\370?\344\032\342\036zv\376\277-\037\006^\001$\361\277\2329`_|\374\023\300\237\356\231\326\035\262\031\300\237\356\231\326\035\262\031\300\2078\227\217\032Q\027\300\246.\260\024\345\262\t\300\007T\272`\367\324\006@=\000\326,\305\227\033@\265p\377\371R\007\023@~\352\000\310\302\347H\277\364\347\r\313\r\026\002\300\001HAF\376\337\037@^\201\313x\265D\030\300\2560\351\273\213\006\003@\350\374\017\'\275\311\'@$J\323\345\3016\031@)\tM\320\265\215\014\300\355\247\367\214F\025\022\300\372\234GB\257\313\007\300~\352\000\310\302\347H\277\3120B\264\250\t\003\300\005^\372\323Iv\024\300\332\3234\354K\320\346?\244e\366\266\236\272\370?-\037\006^\001$\361\277\372\234GB\257\313\007\300R\300\030\347\032\232\013\300\002\033;\027\227y\356\277-\037\006^\001$\361\277\355\247\367\214F\025\022\300_w\213\005c\243\n@^\201\313x\265D\030\300\234\034\031\254,\245\276\277\363\036Tm\307\035\361?#T\023Y\024\330\006\300N\013\337oy\344\005\3003\312\377aP8\031\300\372\234GB\257\313\007\300R\300\030\347\032\232\013\300\363\\1\004\350\312\027\300}w\344\375\177\246\n\300\2329`_|\374\023\300N\013\337oy\344\005\300\254:)/\336\247\020\300\350\374\017\'\275\311\'@.\025\306\352\256\202\023\300\3120B\264\250\t\003\300\367\260\307(T\016\343\277\254:)/\336\247\020\300\2329`_|\374\023\300\376Q\201\271P\201\r\300\204y\035\245&\372\003@\320\345{+J\277\010\300\036\237\331\341r\"\001\300LB%\0223\354\364?\235\272\374\262O\246\020@\214\367\020z\016\250\372\277\331\260n07\013\363\277N\013\337oy\344\005\300\237\356\231\326\035\262\031\300.\025\306\352\256\202\023\300O\001\237\374&C\030@ \225\231n \201\023@;\033\355\007\321\177\336\277\376Q\201\271P\201\r\300\237\356\231\326\035\262\031\3006\266m\335\345, @\367\260\307(T\016\343\277^\201\313x\265D\030\300\246.\260\024\345\262\t\3008\211yLD\217\374\277\246.\260\024\345\262\t\300\202\203]\030y\233\021\300w\302\252\206\336\360\004\3002\226b>\202,\020@\243o6*\361[\026@\263\345\"3-\274\010@#T\023Y\024\330\006\300)\tM\320\265\215\014\300\320\345{+J\277\010\300\214\032\3275#m\356?\234\034\031\254,\245\276\277\002\033;\027\227y\356\277\3120B\264\250\t\003\300\363\\1\004\350\312\027\300\327\347\264\322\360\022\002@\372\234GB\257\313\007\300\355\247\367\214F\025\022\300\367\260\307(T\016\343\2773\312\377aP8\031\300\216\343\220\223ie\017@LB%\0223\354\364?\014\t\364\327\230\212\014@\2329`_|\374\023\300R\300\030\347\032\232\013\3000\013\206w\\\341\005@8\211yLD\217\374\277w\302\252\206\336\360\004\300\372\234GB\257\313\007\3008\211yLD\217\374\277+VL\000\273+\000@N\013\337oy\344\005\300\367\260\307(T\016\343\277\034\024\375\032M\327\026\300\237\260\274?\375\004\363?\253\343\351\213\206h\017\300\310\245e\355\202\276\030\300Y\302Q\216\301\355\004@\254:)/\336\247\020\300}w\344\375\177\246\n\300\2329`_|\374\023\300\237\356\231\326\035\262\031\300\027_\303\243\253!\021\300\235\272\374\262O\246\020@\237\356\231\326\035\262\031\300R\032%E\351f\336?\363\\1\004\350\312\027\300\237\356\231\326\035\262\031\300;\033\355\007\321\177\336\277\334\234\356I\222\310\007@\237\356\231\326\035\262\031\300\375\210\307[\n\211\374?~m\244\212-\005\035@\361\030\371\240\215A\276?\216\343\220\223ie\017@\2113\367Uq\200(@)\tM\320\265\215\014\300<k\247T\207\342%@HV\245\370\327.\000\300\3120B\264\250\t\003\300\375\210\307[\n\211\374?\334\031\301cuZ\316?6\266m\335\345, @\036\237\331\341r\"\001\300\220nmZ\217\260\031@\376Q\201\271P\201\r\300\314&\002AVh\025@~m\244\212-\005\035@F\313\3101\262\343\025\300\001\237\200\351U\037\001@3\312\377aP8\031\300\375\210\307[\n\211\374?HV\245\370\327.\000\300\373\222\007\317\\*\032@\3120B\264\250\t\003\300\327\347\264\322\360\022\002@R\300\030\347\032\232\013\300\243o6*\361[\026@X\314\221\001\024\217\022\300\204y\035\245&\372\003@\r\377\241\306\200 !@\253\343\351\213\206h\017\300+VL\000\273+\000@3\367\005\221\267\236\352?X\314\221\001\024\217\022\300;\033\355\007\321\177\336\277_w\213\005c\243\n@\310\245e\355\202\276\030\300\214\367\020z\016\250\372\277\314&\002AVh\025@\001\237\200\351U\037\001@\254:)/\336\247\020\300\254:)/\336\247\020\300F\313\3101\262\343\025\300X\314\221\001\024\217\022\3003\367\005\221\267\236\352?p\202\224H\027\360\024\300\213\2713\343\355\372\023@\203~\275\336\317\312\"@\235\272\374\262O\246\020@\320F\r\340\271h%@\216\343\220\223ie\017@\016\224\320\236\276\325\026@R\300\030\347\032\232\013\300\372\234GB\257\313\007\300\2078\227\217\032Q\027\300<k\247T\207\342%@\204y\035\245&\372\003@\2329`_|\374\023\300\001\237\200\351U\037\001@\213\2713\343\355\372\023@\261\033Q\351D\214\316\277\214\032\3275#m\356?w\302\252\206\336\360\004\300+VL\000\273+\000@\007T\272`\367\324\006@\334\031\301cuZ\316?\212\324J\276\371\342\326\277\320\345{+J\277\010\300\375\210\307[\n\211\374?\035\017]\341\243\006(@\244e\366\266\236\272\370?\2078\227\217\032Q\027\300N\013\337oy\344\005\300\237\356\231\326\035\262\031\300\367\260\307(T\016\343\277\016\217\'\226\262 1@\237\356\231\326\035\262\031\300\334\031\301cuZ\316?\237\356\231\326\035\262\031\300\310\245e\355\202\276\030\300A \341\313(\230+@0\013\206w\\\341\005@p\202\224H\027\360\024\300^\201\313x\265D\030\300\220nmZ\217\260\031@\235\272\374\262O\246\020@\240\323\202\373\021\312\326?Y\302Q\216\301\355\004@\214\367\020z\016\250\372\277;\033\355\007\321\177\336\277\214\367\020z\016\250\372\277\241yv\235C\375\003\300\201\260cG\340\001\343?N\013\337oy\344\005\300O\324\230\315\277\334\346\2773\312\377aP8\031\300A\026\217\272\020.\020\300R\032%E\351f\336?\036\237\331\341r\"\001\300l\310\272\227\314i @f\267\241C*\244\032@\327\354T\014\232\343 @\325\232\265\242\353t\016\300Y\302Q\216\301\355\004@\212\324J\276\371\342\326\277)\tM\320\265\215\014\300\001\237\200\351U\037\001@7K\234\265#\342\025@Nlp$\351\215\"@\010\337\226\'\035 \021@2\324?\325\242\331\366\277\214\367\020z\016\250\372\277\355\247\367\214F\025\022\300\2078\227\217\032Q\027\300F\313\3101\262\343\025\300\372\234GB\257\313\007\300R\032%E\351f\336?.\025\306\352\256\202\023\300\376Q\201\271P\201\r\300\336e\250\247\330\300\370\277\237\356\231\326\035\262\031\300\262\357b\246\177]\026\300\344\032\342\036zv\376\277\331\260n07\013\363\277\005^\372\323Iv\024\300\213\2713\343\355\372\023@\016\224\320\236\276\325\026@\213\2713\343\355\372\023@\027_\303\243\253!\021\300-\037\006^\001$\361\277\036\237\331\341r\"\001\3003\312\377aP8\031\300*j\336\204%7)@\035\017]\341\243\006(@\210.W\034\310\257\t@\251\0320.@p\376?\272%9q\364\274\030@3\312\377aP8\031\300\262\357b\246\177]\026\3002\324?\325\242\331\366\277X\326\343\022,\371-@)\030N\363%?1@\375\210\307[\n\211\374?}w\344\375\177\246\n\300\251\0320.@p\376?N\013\337oy\344\005\300\375\210\307[\n\211\374?|\330u\262\357O\'@\204y\035\245&\372\003@_w\213\005c\243\n@2\324?\325\242\331\366\277\334\031\301cuZ\316?\327\347\264\322\360\022\002@\240\351\371\234t\341*@\334\031\301cuZ\316?6\266m\335\345, @7K\234\265#\342\025@\361\030\371\240\215A\276?}w\344\375\177\246\n\300R\032%E\351f\336?\373\222\007\317\\*\032@\265p\377\371R\007\023@\254:)/\336\247\020\3005\300\277\356\375\226\013@JLe\205\205\215\022@LB%\0223\354\364?\237\356\231\326\035\262\031\300\237\260\274?\375\004\363?\210.W\034\310\257\t@\217\331>\202Q\373#@"
      }
    }
  }
}
node {
  name: "tensors/component_1"
  op: "Const"
  device: "/device:CPU:0"
  attr {
    key: "_output_shapes"
    value {
      list {
        shape {
          dim {
            size: 313
          }
        }
      }
    }
  }
  attr {
    key: "dtype"
    value {
      type: DT_DOUBLE
    }
  }
  attr {
    key: "value"
    value {
      tensor {
        dtype: DT_DOUBLE
        tensor_shape {
          dim {
            size: 313
          }
        }
        tensor_content: "S\035\337\034\322\350\010\300\022\323\"v\005\231\n\300\334d\004\373\1770\010\300S\035\337\034\322\350\010\300\310\0222\231\033q\030\300\256M~*\276z\363\277\3403\276\3648v\353\277\355?\376\246\300A\027\300}\351 C\344\007\007\300\337\257\342\002\217y\025@\212\275\277\376F<\034@\271_\336\321G\330&@!\322\032\031\367\242\n\300v~\000\030\231\225\002\300\312\337`\376\334\217\353\277q\273||\205S\371?\326\201\307\035P\\\025@\206\225\304M\027v\374?dM=\353\276\332\360?\260\027.\261:\277\017\300\252\'\004\220\033r\020@\256$h\340jO\003\300\317A\326\253F\355\366\277\3748U\010\275\005\025\300\265\3078\340`\213\032\300\265\3078\340`\213\032\300\261\234\377\301\342\277\027\300\310!\274\262o\347\006\300\216\257\261\332\246\337\365?(g}.8l\023@l^\374\375\351^\006@\202\322\367\314\003-\363?\345\310j\333\030\356\370\277b\2456z\324\035\027@)z\376<\t6\031\300\271\333\220@\357\357\024@\266\333\036l\375i/@K\210CF*\003\025@\264\302\034B\3435\013\300:\236\344\200\251\007\023\300Iw\372\333)f\n\300\236\314\232\347\272Y\344\277F\373\027\037\323\267\345\277^\367\205\002\3209\r\300\002\254_\021\"\372\373?N\320O=\025G\266?dZ\246 \371,\372\277t?\314\027b\340\370\277\033\373t\300\267\335\016\300\006\001\315\017\010\251\376\277\313\032\304L\035?\326\277\376g\266\3403G\020\300\316v\371l\263J\023@\005\313\255}\256\"\031\300~CAX\3114\347?\243\205y\347<\277\344?\250,\206\302\257v\014\300\305\313b\350}O\016\300\214\373\027eS-\032\300Iw\372\333)f\n\300\314\241\244\270$\233\r\300[\232Q9]\360\030\300\224\211\363\231\273\244\000\300\355\377\226 ?\330\022\300\323\"\304\261\376D\363\277f\267\021\315\010M\020\300\334\350\332\347U\242!@,\373\237\235$\211\023\300x PA\350 \356\277\347C\203d\372?\354\277\006m6(\213\031\022\300\004\364\035\304K\"\022\300\264C\352}9`\013\3002\342\003Z\025\\\001@\226\240\016-\276\345\006\300\313\337*\264\352\364\003\300\333%u\213\372\302\342?=\027~\335`[\002@q\201p\375\013\036\314\277\303f\377c\037\302\004\300\323\"\304\261\376D\363\277\265\3078\340`\213\032\300\202\027m\323pR\023\300;\271\016\234\302\004\026@\000\033RS\373\216\032@\036\337\027\377\256&\366?\264C\352}9`\013\300\265\3078\340`\213\032\300\365L\317\330\345\206\027@\272w\302\2467\274\371\277\310\0222\231\033q\030\300\022\340\303x`=\014\300\360f\251T\353\355\374\277J!,=\230\026\r\300lc\375&\274\255\020\300^\261\275\355W\243\007\3006[\202\034\251\"\t@\374sI\036\302\356\023@6H\0063\201\206\035@\260Y\205\3032\301\003\300\206\307\333\276:J\006\300\347\344\244}\375\226\004\300x PA\350 \356\277\313\327\223g#4\005@\334\363D\205\023\233\312\277\224H\364P!\314\005\300@\350\001\010s\252\030\300=\355\266\325+5\003@y\330Y\320J^\010\3003\320\213k\206.\023\300\034\221\332\300\265\r\357\277\250\255\226\247G\374\031\300\372\374\331\007\014S\002@\036\001f\271\236\"\003@\216D\324\00448\010@\004\364\035\304K\"\022\300\314\241\244\270$\233\r\300J\223\377\353;l\033@\304\013<\265\nJ\357\277}\351 C\344\007\007\300\013\323\250|\322H\r\300g`G3\246n\010\300n\r\312\357;I\n@\350\304\2133Y\210\t\300\356\357E\302\243\225\363?\336\025jr\370\304\027\300\324]C\217\020@\350\277\034\262#\021\377q\016\300a/\367\351E\317\031\300\204\304\t\354\033\227\362?t2\376\203\017\353\022\300\376\315\207\037\311\033\020\300\221=\20222\326\023\300\265\3078\340`\213\032\300\200\370\246\333\232{\020\300|\362-\177Q\367\003@\265\3078\340`\213\032\3006f\"ni\n\331?\035v\305H\2514\026\300\265\3078\340`\213\032\300\264-$\267\036~\350\277\320M\024U\354\203\367?\265\3078\340`\213\032\300\210\3322\257\326d\334?V\005p/H\235\023@\035\346\227\032\325\001\010@N\037g\317SG\035@\352\200\223\224\213\233.@b\274\240\203G\301\017\300\345.xn\233}$@6f\201\257p\031\334\277\304\237\361\376\004\352\362\277\021wu\217\023~\376?h\2048\260T\031!@`i\226HI\230+@\333\356lX\310h\343\277\330&V\341\264-\030@\244\261V\262\315\353\017\300^N\211!sb\n@\312\262\223\355M\254\"@\227\245*\313;;\026\300w\177\233\275\331\213\010@\001D\237\006\'\375\031\300]0\315\245\227r\367?f+\306eO\t\003\300\246\333 \330\210\262%@\207\374\007\267]@\373\2775\256\250\006O\366\376?\326\003.\315d\022\010\300\213&\255\247\'+\024@\365\353\264\003\341\035\023\300\266w\304w\326\362\360?\354W&\306A\277\023@\367EN\261\215\035\022\300\177\215\340\236\354h\275\277g\030Q\337\237a\375?\312\343\352\257v\353\020\300\021\037\016\207[I\361\277E|\212\214J\315\003@\376\2241\232Ww\031\300\006\247\246\242\002\331\327?\230\327a7`\313\034@w\177\233\275\331\213\010@\272\227\024\340\326\264\014\300\234\301\364u\035\315\021\300\332\227w`Ji\025\300d*\276\022T\244\023\300\345@+\r\252\210\360\277\014\252l\023\222\031\026\300\204\204\177\252Zs\001@qA\223%\240Q\026@\035\n\234\234\033\033\031@\267\244\374\007\215v0@\352/L\027<7!@;\277\027s\374\333\005@\352\262d\341lT\014\300Iw\372\333)f\n\300v~\267\226\213\021\030\300\222\237=fO\030\033@\033\347z\240#)\320?t5\237?\222\224\023\30005\277S\2437\002@(\340j\246\355\371\007@X\001f\\g\372\340\277` t[\234\240\360?\"72Kj\322\n\300\271\311\306\275\377A\337?\331eb\207N\016\021@@\213O\212\215\321\367?V6\360 Xj\337?j\250\216\363\277\311\n\300y\3742\n\327\014\010@$&@x\021\211\"@\276\\&\351U\205\316?\342\270\322yyR\030\300\236\277[\3119c\006\300\265\3078\340`\213\032\300\242\3210p\337>\240\277\346B\005\332\006\\+@\265\3078\340`\213\032\300\255\204y\234yz\332\277\265\3078\340`\213\032\300&\205[o>b\031\300\037\266/z\311\364!@Km\2630\003=\003@<CsD\016\331\025\3009c\326n8q\031\300\276\313\353\356j\357\032@|\362-\177Q\367\003@-\227E\330\0274\351\277\227$\027m$\257\357?\021\037\016\207[I\361\277\211q\353\316\177Z\353\277\306\262\025\314\277\275\360\277ki=\2136S\353\277\316\314\323p\302\016\365?\323\"\304\261\376D\363\277\205~\016\017\353\000\360\277\212\367|\017\036\347\031\300\010\340\266\321\320\272\016\300\373\232<\000\373B\306?>\247\277f\212\026\005\300$\240\3405\367\357\027@\330\325}\351\201X\026@q`4\277\303\377&@\366N\n\003\037@\006\300\304\247[E\214L\002@\032*\273 \311K\370\277\t\373\026R\035\272\021\300\342\201\344\345Y\323\365?xd\364\215\317\376\014@\276\351\213J\320\236\'@\373\357\0305}\303\027@\002\3731\001P\345\271?\301(\250\312Y\010\377\277\376g\266\3403G\020\300\240\013\260\277B\n\027\300T\002\"w\375\357\024\300\032a\270v\246\335\004\300FO\016\177\204W\005@\301/\333O\3743\022\300\336gS`\300\222\007\300\247\235\370\363k\'\375\277\265\3078\340`\213\032\300\031\260\246\344i\243\025\300[\350\016!O\267\226?\240\001[\357\2600\337\277\344-\247\343-\235\024\300myL\237D\266\t@\374YH\005\025\243\016@\204\204\177\252Zs\001@\0168\214\201\\\375\r\300\314\037\035\223\264\243\365\277\002\204\017\246\030\002\325\277\234\224\252\341\336\337\031\300\n\034\316\214c,/@0_q\300i\222&@i;\226\357\302m\031@q\273||\205S\371?\202\"\370\371\317\365\020@\214\373\027eS-\032\300\2172S\202\002\371\027\300\002\3731\001P\345\271?`\376\001\300\224\272*@\340\232\022\365\214H\'@\022\220\224\356\275O\005@\230/\373~/\271\003\300\010\314\211\263%v\312\277J\020\242\301&\235\372\277]0\315\245\227r\367?\264\\)o\246\201$@\220\t\353x\270(\373?\342I\244\024#\013\025@\256!\317\001\354\211\350\277\266\233\276\337\266D\360\277\220\013\325o\254K\024@\202\2643\003\027\2170@\302Y\360\252\211/\257\277\365L\317\330\345\206\027@\326\345\205\203\306c\004@(\006\225\250H\177\365?F]\016\266\320\r\t\300Tle\004\373\202\310\277\325\304:\024\0041\022@\026\354\026\003\335\255\031@\342\274\tF\003\331\017\300\216Y_\333\0374\022@\213Uq\300\361w\020@\036\001f\271\236\"\003@\265\3078\340`\213\032\300\313\017\236\207G@\347?i;\226\357\302m\031@\222s\n1\235\330\034@"
      }
    }
  }
}
node {
  name: "tensors/component_2"
  op: "Const"
  device: "/device:CPU:0"
  attr {
    key: "_output_shapes"
    value {
      list {
        shape {
          dim {
            size: 313
          }
        }
      }
    }
  }
  attr {
    key: "dtype"
    value {
      type: DT_DOUBLE
    }
  }
  attr {
    key: "value"
    value {
      tensor {
        dtype: DT_DOUBLE
        tensor_shape {
          dim {
            size: 313
          }
        }
        tensor_content: "\3570\332?\324\256\026@3,\246\360\334\305 \3003,\246\360\334\305 \300\3570\332?\324\256\026@\016\020!b\373\235\320\2773,\246\360\334\305 \300\3570\332?\324\256\026@\3570\332?\324\256\026@\3570\332?\324\256\026@\312\270\231s\251\341\027\300\3570\332?\324\256\026@\312\270\231s\251\341\027\300\3570\332?\324\256\026@\021\266\002Y\026}\023\300\241\347t\257W\332\020\300\3570\332?\324\256\026@\3570\332?\324\256\026@\364VX\025\\\313\013@\364VX\025\\\313\013@\312\270\231s\251\341\027\300\241\347t\257W\332\020\300\3570\332?\324\256\026@\026\355\242\344}\243\031\300b\262j\352\236\254\336\277\312\270\231s\251\341\027\300\3570\332?\324\256\026@\3570\332?\324\256\026@\3570\332?\324\256\026@\312\270\231s\251\341\027\300\312\270\231s\251\341\027\3003,\246\360\334\305 \300\364VX\025\\\313\013@\364VX\025\\\313\013@\312\270\231s\251\341\027\300\3570\332?\324\256\026@\030 \t\007\035\301\374\277\364VX\025\\\313\013@\3570\332?\324\256\026@\021\266\002Y\026}\023\300\3570\332?\324\256\026@b\262j\352\236\254\336\277\3570\332?\324\256\026@\016\020!b\373\235\320\277\207\373~\375\362d\355\277\3570\332?\324\256\026@3,\246\360\334\305 \300\3570\332?\324\256\026@\016\020!b\373\235\320\277\3570\332?\324\256\026@\312\270\231s\251\341\027\300\3570\332?\324\256\026@\030 \t\007\035\301\374\277\3570\332?\324\256\026@\3570\332?\324\256\026@\021\266\002Y\026}\023\300\026\355\242\344}\243\031\300\312\270\231s\251\341\027\300\3570\332?\324\256\026@\3570\332?\324\256\026@b\262j\352\236\254\336\277\3570\332?\324\256\026@3,\246\360\334\305 \300\016\020!b\373\235\320\277\030 \t\007\035\301\374\277\016\020!b\373\235\320\277\021\266\002Y\026}\023\3003,\246\360\334\305 \300\021\266\002Y\026}\023\300\207\373~\375\362d\355\277\3570\332?\324\256\026@\3570\332?\324\256\026@\016\020!b\373\235\320\277\3570\332?\324\256\026@\3570\332?\324\256\026@\021\266\002Y\026}\023\300b\262j\352\236\254\336\277\3570\332?\324\256\026@3,\246\360\334\305 \300\241\347t\257W\332\020\300\3570\332?\324\256\026@\016\020!b\373\235\320\277\312\270\231s\251\341\027\300\021\266\002Y\026}\023\300\026\355\242\344}\243\031\300\3570\332?\324\256\026@\241\347t\257W\332\020\300\3570\332?\324\256\026@\312\270\231s\251\341\027\300\312\270\231s\251\341\027\300\312\270\231s\251\341\027\300\016\020!b\373\235\320\277b\262j\352\236\254\336\277W\304\215\364b\"\000\300\3570\332?\324\256\026@\364VX\025\\\313\013@b\262j\352\236\254\336\277\3570\332?\324\256\026@b\262j\352\236\254\336\277\016\020!b\373\235\320\277\021\266\002Y\026}\023\300\030 \t\007\035\301\374\277\364VX\025\\\313\013@\3570\332?\324\256\026@\016\020!b\373\235\320\277\3570\332?\324\256\026@b\262j\352\236\254\336\277\3570\332?\324\256\026@W\304\215\364b\"\000\300W\304\215\364b\"\000\300b\262j\352\236\254\336\277\026\355\242\344}\243\031\300\3570\332?\324\256\026@\312\270\231s\251\341\027\300\021\266\002Y\026}\023\300b\262j\352\236\254\336\277\016\020!b\373\235\320\277\3570\332?\324\256\026@\016\020!b\373\235\320\277\364VX\025\\\313\013@\3570\332?\324\256\026@\312\270\231s\251\341\027\300\3570\332?\324\256\026@\3570\332?\324\256\026@\3570\332?\324\256\026@\030 \t\007\035\301\374\277\026\355\242\344}\243\031\300\3570\332?\324\256\026@\021\266\002Y\026}\023\300\3570\332?\324\256\026@\312\270\231s\251\341\027\3003,\246\360\334\305 \3003,\246\360\334\305 \300\3570\332?\324\256\026@\3570\332?\324\256\026@\3570\332?\324\256\026@\312\270\231s\251\341\027\300\364VX\025\\\313\013@\207\373~\375\362d\355\277\207\373~\375\362d\355\277\030 \t\007\035\301\374\277\3570\332?\324\256\026@\312\270\231s\251\341\027\300\207\373~\375\362d\355\277\312\270\231s\251\341\027\3003,\246\360\334\305 \300\016\020!b\373\235\320\277\030 \t\007\035\301\374\277\3570\332?\324\256\026@\3570\332?\324\256\026@\026\355\242\344}\243\031\300\207\373~\375\362d\355\277\241\347t\257W\332\020\300W\304\215\364b\"\000\300\207\373~\375\362d\355\277\207\373~\375\362d\355\277\207\373~\375\362d\355\277\3570\332?\324\256\026@b\262j\352\236\254\336\2773,\246\360\334\305 \300\021\266\002Y\026}\023\300\021\266\002Y\026}\023\300\021\266\002Y\026}\023\300\021\266\002Y\026}\023\300\3570\332?\324\256\026@b\262j\352\236\254\336\277\241\347t\257W\332\020\300\364VX\025\\\313\013@\3570\332?\324\256\026@\364VX\025\\\313\013@\026\355\242\344}\243\031\300W\304\215\364b\"\000\300\312\270\231s\251\341\027\300\3570\332?\324\256\026@3,\246\360\334\305 \300\3570\332?\324\256\026@\021\266\002Y\026}\023\300\030 \t\007\035\301\374\277\3570\332?\324\256\026@\3570\332?\324\256\026@\021\266\002Y\026}\023\300\016\020!b\373\235\320\277\3570\332?\324\256\026@\021\266\002Y\026}\023\300\030 \t\007\035\301\374\277b\262j\352\236\254\336\277\030 \t\007\035\301\374\277b\262j\352\236\254\336\277\3570\332?\324\256\026@\3570\332?\324\256\026@\3570\332?\324\256\026@\3570\332?\324\256\026@\364VX\025\\\313\013@\030 \t\007\035\301\374\277\016\020!b\373\235\320\277\3570\332?\324\256\026@W\304\215\364b\"\000\300b\262j\352\236\254\336\277W\304\215\364b\"\000\300\3570\332?\324\256\026@\3570\332?\324\256\026@\364VX\025\\\313\013@W\304\215\364b\"\000\3003,\246\360\334\305 \300\3570\332?\324\256\026@W\304\215\364b\"\000\300\312\270\231s\251\341\027\3003,\246\360\334\305 \300\3570\332?\324\256\026@\364VX\025\\\313\013@\3570\332?\324\256\026@\3570\332?\324\256\026@\3570\332?\324\256\026@\312\270\231s\251\341\027\300\312\270\231s\251\341\027\300\3570\332?\324\256\026@W\304\215\364b\"\000\300\3570\332?\324\256\026@\021\266\002Y\026}\023\300\312\270\231s\251\341\027\300\312\270\231s\251\341\027\300\3570\332?\324\256\026@\3570\332?\324\256\026@\364VX\025\\\313\013@\3570\332?\324\256\026@\3570\332?\324\256\026@\3570\332?\324\256\026@\3570\332?\324\256\026@W\304\215\364b\"\000\300\312\270\231s\251\341\027\300\312\270\231s\251\341\027\3003,\246\360\334\305 \300\021\266\002Y\026}\023\300\026\355\242\344}\243\031\300\3570\332?\324\256\026@\016\020!b\373\235\320\277\021\266\002Y\026}\023\300\016\020!b\373\235\320\277\3570\332?\324\256\026@\241\347t\257W\332\020\300\3570\332?\324\256\026@\3570\332?\324\256\026@\3570\332?\324\256\026@\312\270\231s\251\341\027\300\3570\332?\324\256\026@\364VX\025\\\313\013@\016\020!b\373\235\320\277\3570\332?\324\256\026@3,\246\360\334\305 \300\3570\332?\324\256\026@\3570\332?\324\256\026@\312\270\231s\251\341\027\300\3570\332?\324\256\026@\3570\332?\324\256\026@\030 \t\007\035\301\374\277\3570\332?\324\256\026@\030 \t\007\035\301\374\277\016\020!b\373\235\320\277\016\020!b\373\235\320\277\021\266\002Y\026}\023\300\241\347t\257W\332\020\300\241\347t\257W\332\020\300\030 \t\007\035\301\374\277\3570\332?\324\256\026@W\304\215\364b\"\000\300\016\020!b\373\235\320\277\016\020!b\373\235\320\277\3570\332?\324\256\026@\021\266\002Y\026}\023\300\312\270\231s\251\341\027\300\312\270\231s\251\341\027\300\3570\332?\324\256\026@\241\347t\257W\332\020\300\3570\332?\324\256\026@\016\020!b\373\235\320\277\207\373~\375\362d\355\277\021\266\002Y\026}\023\300\026\355\242\344}\243\031\300\030 \t\007\035\301\374\277\3570\332?\324\256\026@\312\270\231s\251\341\027\300\3570\332?\324\256\026@\3570\332?\324\256\026@\030 \t\007\035\301\374\277\3570\332?\324\256\026@\3570\332?\324\256\026@\021\266\002Y\026}\023\300\241\347t\257W\332\020\300\3570\332?\324\256\026@\030 \t\007\035\301\374\277\3570\332?\324\256\026@\3570\332?\324\256\026@\3570\332?\324\256\026@\364VX\025\\\313\013@\3570\332?\324\256\026@3,\246\360\334\305 \300\030 \t\007\035\301\374\277\021\266\002Y\026}\023\300\3570\332?\324\256\026@\312\270\231s\251\341\027\300\3570\332?\324\256\026@\364VX\025\\\313\013@\021\266\002Y\026}\023\300\3570\332?\324\256\026@\312\270\231s\251\341\027\300\021\266\002Y\026}\023\300\3570\332?\324\256\026@\021\266\002Y\026}\023\300\026\355\242\344}\243\031\300\021\266\002Y\026}\023\300\3570\332?\324\256\026@b\262j\352\236\254\336\277\241\347t\257W\332\020\3003,\246\360\334\305 \300"
      }
    }
  }
}
node {
  name: "tensors/component_3"
  op: "Const"
  device: "/device:CPU:0"
  attr {
    key: "_output_shapes"
    value {
      list {
        shape {
          dim {
            size: 313
          }
        }
      }
    }
  }
  attr {
    key: "dtype"
    value {
      type: DT_DOUBLE
    }
  }
  attr {
    key: "value"
    value {
      tensor {
        dtype: DT_DOUBLE
        tensor_shape {
          dim {
            size: 313
          }
        }
        tensor_content: "\213\366n9\213\313\377\277\266\024u\315\004\273\025@\266\024u\315\004\273\025@\213\366n9\213\313\377\277\276\031\260i\350\277\346?\266\024u\315\004\273\025@\034\024\036\363\267V\026\300\213\366n9\213\313\377\277\213\366n9\213\313\377\277\376\025\244\032\310y\006@\370\311]\301\263\344\005\300\376\025\244\032\310y\006@\201\245\324\202\376\017%\300\311j\203T\362B @\002>\317\237\265\323\032@\213\366n9\213\313\377\277\213\366n9\213\313\377\277\320Wr\n\302\030\001\300\320Wr\n\302\030\001\300\376\025\244\032\310y\006@\002>\317\237\265\323\032@\034\024\036\363\267V\026\300\362?\326_\357\354\034@(\177\305\0349\030\004\300\376\025\244\032\310y\006@\034\024\036\363\267V\026\300\370\311]\301\263\344\005\300\370\311]\301\263\344\005\300\376\025\244\032\310y\006@\376\025\244\032\310y\006@\266\024u\315\004\273\025@\320Wr\n\302\030\001\300\320Wr\n\302\030\001\300\376\025\244\032\310y\006@\034\024\036\363\267V\026\3000\361\256\242\327\367\364?\320Wr\n\302\030\001\300\034\024\036\363\267V\026\300\311j\203T\362B @\213\366n9\213\313\377\277(\177\305\0349\030\004\300\034\024\036\363\267V\026\300\276\031\260i\350\277\346?\304\035\300\032\257\336\016@\370\311]\301\263\344\005\300\266\024u\315\004\273\025@\034\024\036\363\267V\026\300\276\031\260i\350\277\346?\034\024\036\363\267V\026\300\376\025\244\032\310y\006@\370\311]\301\263\344\005\3000\361\256\242\327\367\364?\370\311]\301\263\344\005\300\213\366n9\213\313\377\277\337\206`\204\366\206\032@\362?\326_\357\354\034@\376\025\244\032\310y\006@\201\245\324\202\376\017%\300\201\245\324\202\376\017%\300(\177\305\0349\030\004\300\213\366n9\213\313\377\277\266\024u\315\004\273\025@\276\031\260i\350\277\346?0\361\256\242\327\367\364?\276\031\260i\350\277\346?\311j\203T\362B @\266\024u\315\004\273\025@\311j\203T\362B @\2175\333,X\024\001@\213\366n9\213\313\377\277\034\024\036\363\267V\026\300\276\031\260i\350\277\346?\370\311]\301\263\344\005\300\213\366n9\213\313\377\277\311j\203T\362B @(\177\305\0349\030\004\300\034\024\036\363\267V\026\300\266\024u\315\004\273\025@\002>\317\237\265\323\032@\201\245\324\202\376\017%\300\276\031\260i\350\277\346?\376\025\244\032\310y\006@\337\206`\204\366\206\032@\362?\326_\357\354\034@\370\311]\301\263\344\005\300\002>\317\237\265\323\032@\370\311]\301\263\344\005\300\376\025\244\032\310y\006@\376\025\244\032\310y\006@\376\025\244\032\310y\006@\276\031\260i\350\277\346?(\177\305\0349\030\004\300\271\n\200-g\247\325\277\034\024\036\363\267V\026\300\320Wr\n\302\030\001\300(\177\305\0349\030\004\300\034\024\036\363\267V\026\300(\177\305\0349\030\004\300\276\031\260i\350\277\346?\337\206`\204\366\206\032@0\361\256\242\327\367\364?\320Wr\n\302\030\001\300\201\245\324\202\376\017%\300\276\031\260i\350\277\346?\370\311]\301\263\344\005\300(\177\305\0349\030\004\300\213\366n9\213\313\377\277\271\n\200-g\247\325\277\271\n\200-g\247\325\277(\177\305\0349\030\004\300\362?\326_\357\354\034@\370\311]\301\263\344\005\300\376\025\244\032\310y\006@\337\206`\204\366\206\032@(\177\305\0349\030\004\300\276\031\260i\350\277\346?\213\366n9\213\313\377\277\276\031\260i\350\277\346?\320Wr\n\302\030\001\300\213\366n9\213\313\377\277\376\025\244\032\310y\006@\201\245\324\202\376\017%\300\370\311]\301\263\344\005\300\034\024\036\363\267V\026\3000\361\256\242\327\367\364?\362?\326_\357\354\034@\201\245\324\202\376\017%\300\311j\203T\362B @\201\245\324\202\376\017%\300\376\025\244\032\310y\006@\266\024u\315\004\273\025@\266\024u\315\004\273\025@\370\311]\301\263\344\005\300\370\311]\301\263\344\005\300\370\311]\301\263\344\005\300\376\025\244\032\310y\006@\320Wr\n\302\030\001\300\304\035\300\032\257\336\016@\304\035\300\032\257\336\016@0\361\256\242\327\367\364?\213\366n9\213\313\377\277\376\025\244\032\310y\006@\304\035\300\032\257\336\016@\376\025\244\032\310y\006@\266\024u\315\004\273\025@\276\031\260i\350\277\346?0\361\256\242\327\367\364?\370\311]\301\263\344\005\300\034\024\036\363\267V\026\300\362?\326_\357\354\034@\2175\333,X\024\001@\002>\317\237\265\323\032@\271\n\200-g\247\325\277\304\035\300\032\257\336\016@\2175\333,X\024\001@\2175\333,X\024\001@\213\366n9\213\313\377\277(\177\305\0349\030\004\300\266\024u\315\004\273\025@\337\206`\204\366\206\032@\311j\203T\362B @\311j\203T\362B @\337\206`\204\366\206\032@\213\366n9\213\313\377\277(\177\305\0349\030\004\300\002>\317\237\265\323\032@\320Wr\n\302\030\001\300\213\366n9\213\313\377\277\320Wr\n\302\030\001\300\362?\326_\357\354\034@\271\n\200-g\247\325\277\376\025\244\032\310y\006@\201\245\324\202\376\017%\300\266\024u\315\004\273\025@\201\245\324\202\376\017%\300\337\206`\204\366\206\032@0\361\256\242\327\367\364?\034\024\036\363\267V\026\300\034\024\036\363\267V\026\300\311j\203T\362B @\276\031\260i\350\277\346?\370\311]\301\263\344\005\300\311j\203T\362B @0\361\256\242\327\367\364?(\177\305\0349\030\004\3000\361\256\242\327\367\364?(\177\305\0349\030\004\300\201\245\324\202\376\017%\300\034\024\036\363\267V\026\300\201\245\324\202\376\017%\300\201\245\324\202\376\017%\300\320Wr\n\302\030\001\3000\361\256\242\327\367\364?\276\031\260i\350\277\346?\201\245\324\202\376\017%\300\271\n\200-g\247\325\277(\177\305\0349\030\004\300\271\n\200-g\247\325\277\201\245\324\202\376\017%\300\201\245\324\202\376\017%\300\320Wr\n\302\030\001\300\271\n\200-g\247\325\277\266\024u\315\004\273\025@\213\366n9\213\313\377\277\271\n\200-g\247\325\277\376\025\244\032\310y\006@\266\024u\315\004\273\025@\370\311]\301\263\344\005\300\320Wr\n\302\030\001\300\370\311]\301\263\344\005\300\213\366n9\213\313\377\277\370\311]\301\263\344\005\300\376\025\244\032\310y\006@\376\025\244\032\310y\006@\034\024\036\363\267V\026\300\271\n\200-g\247\325\277\370\311]\301\263\344\005\300\311j\203T\362B @\376\025\244\032\310y\006@\376\025\244\032\310y\006@\034\024\036\363\267V\026\300\370\311]\301\263\344\005\300\320Wr\n\302\030\001\300\201\245\324\202\376\017%\300\213\366n9\213\313\377\277\213\366n9\213\313\377\277\201\245\324\202\376\017%\300\271\n\200-g\247\325\277\376\025\244\032\310y\006@\376\025\244\032\310y\006@\266\024u\315\004\273\025@\337\206`\204\366\206\032@\362?\326_\357\354\034@\370\311]\301\263\344\005\300\276\031\260i\350\277\346?\311j\203T\362B @\276\031\260i\350\277\346?\213\366n9\213\313\377\277\002>\317\237\265\323\032@\370\311]\301\263\344\005\300\213\366n9\213\313\377\277\034\024\036\363\267V\026\300\376\025\244\032\310y\006@\034\024\036\363\267V\026\300\320Wr\n\302\030\001\300\276\031\260i\350\277\346?\213\366n9\213\313\377\277\266\024u\315\004\273\025@\201\245\324\202\376\017%\300\034\024\036\363\267V\026\300\376\025\244\032\310y\006@\370\311]\301\263\344\005\300\370\311]\301\263\344\005\3000\361\256\242\327\367\364?\213\366n9\213\313\377\2770\361\256\242\327\367\364?\276\031\260i\350\277\346?\276\031\260i\350\277\346?\337\206`\204\366\206\032@\002>\317\237\265\323\032@\002>\317\237\265\323\032@0\361\256\242\327\367\364?\213\366n9\213\313\377\277\271\n\200-g\247\325\277\276\031\260i\350\277\346?\276\031\260i\350\277\346?\370\311]\301\263\344\005\300\311j\203T\362B @\376\025\244\032\310y\006@\376\025\244\032\310y\006@\201\245\324\202\376\017%\300\002>\317\237\265\323\032@\213\366n9\213\313\377\277\276\031\260i\350\277\346?\2175\333,X\024\001@\337\206`\204\366\206\032@\362?\326_\357\354\034@0\361\256\242\327\367\364?\213\366n9\213\313\377\277\376\025\244\032\310y\006@\201\245\324\202\376\017%\300\201\245\324\202\376\017%\3000\361\256\242\327\367\364?\034\024\036\363\267V\026\300\201\245\324\202\376\017%\300\311j\203T\362B @\002>\317\237\265\323\032@\201\245\324\202\376\017%\3000\361\256\242\327\367\364?\213\366n9\213\313\377\277\034\024\036\363\267V\026\300\034\024\036\363\267V\026\300\320Wr\n\302\030\001\300\370\311]\301\263\344\005\300\266\024u\315\004\273\025@0\361\256\242\327\367\364?\337\206`\204\366\206\032@\213\366n9\213\313\377\277\376\025\244\032\310y\006@\201\245\324\202\376\017%\300\320Wr\n\302\030\001\300\311j\203T\362B @\034\024\036\363\267V\026\300\376\025\244\032\310y\006@\337\206`\204\366\206\032@\370\311]\301\263\344\005\300\311j\203T\362B @\362?\326_\357\354\034@\337\206`\204\366\206\032@\034\024\036\363\267V\026\300(\177\305\0349\030\004\300\002>\317\237\265\323\032@\266\024u\315\004\273\025@"
      }
    }
  }
}
node {
  name: "tensors/component_4"
  op: "Const"
  device: "/device:CPU:0"
  attr {
    key: "_output_shapes"
    value {
      list {
        shape {
          dim {
            size: 313
          }
        }
      }
    }
  }
  attr {
    key: "dtype"
    value {
      type: DT_DOUBLE
    }
  }
  attr {
    key: "value"
    value {
      tensor {
        dtype: DT_DOUBLE
        tensor_shape {
          dim {
            size: 313
          }
        }
        tensor_content: "\020I\246\331\324x\014\300\003-\370\t\341\005\023\300\345\352\256b\203\323\021\300\202\024\373\314\037\343\006\300:\243\263p\"\261 \300\356\256UF\350\007\371\277$\332\275\003\223\270\355?&u,I\023E\r\300\323\304\023\213\031\024\n\300\211\304\t\245=`\013@\240\250`\3107G\021@`\034\342)\3275#@\023\367\252\007\3557 @\357\000r\232\2429\022\300\rC\273A\000l\023\300\336S\000\211\377\244\035@#\350jw\005c\007@@_n\004\3428\374\277JN$\312\364\245\362\277A\261\212X\234j\025\300Y\350\364\233j\371\237?\306\250e\273%\241\020\300:\363\316\014\014C\027@\306\317r-2\232\032\300IDXDQJ!\300\336S\000\211\377\244\035@JN$\312\364\245\362\277,\205\004\351]\236\024\300\237\213\376Y\374\270\353\277\215\243\347\312\005t\032@#\350jw\005c\007@\030\007b%e\240\372\277,\205\004\351]\236\024\300\334t\"c7\221\016@\250\337E\332\216\231\002@\224\263\277jP\315\001@\241\317m:D@\033@\262\034\026\204\272\370\014@t\037Zo8i\027\300t\2460\251q>\364\277K\307M\220\273\320\025\300\265\373\363\251\202\014\034@\346c\330(J\376\004@i\t\2277\031\003\027\300\203\215$\223\346\r\032@;E\353`\306t\360?Y\350\364\233j\371\237?\306\250e\273%\241\020\300\"oA\261>8\024\300\324==Q\340>\035@\347\360\231\372W\340\n\300\333\373\370\234pf\033\300j[\263\213\3234\000@\345\021\274\324\217\314\033\300\373*\315\335\010W\345\277\0338\\\237\347\345\002\300\200y\214\207\237V\347?6\233\307 }\004\025\300\332\324\353*dm\021\300\223\212\261@s4%@\214|\332X\371z\020@\215\365\003\037\300\245\363?\305VIgko\367\277\371=BD\316\230\034\300\"oA\261>8\024\300\274\271\257\365\0224\032\300\336S\000\211\377\244\035@6\233\307 }\004\025\3006\233\307 }\004\025\3001V5\233\263\007\372?\356\256UF\350\007\371\277\030\200\213\353+\313\035\300_\363\323\377\371\234\026\300\274\013\314I\315e\003@\226@\201<^\257\007\300\007\205\377\365oD\025@\312\'z\031\301\330\034@qpS\036q%\325?\030\007b%e\240\372\277\204\006NY\2558\375?\357\000r\232\2429\022\300?.\225\0142\344 \3006\233\307 }\004\025\300\334t\"c7\221\016@j[\263\213\3234\000@&u,I\023E\r\300i\t\2277\031\003\027\300\357\'\177\014\2572\034\300\300\352\251o\225y\022@D\220h~d~\004\300\274\222\242\203\006;\020\300i\267z\343^\321\375\277\336\263\311P,\201\000\300~5\035\247W\317\027\300\372\217^\230\210\312\005@j[\263\213\3234\000@\372\217^\230\210\312\005@u\230\2035\377\223\n@qpS\036q%\325?A\261\212X\234j\025\300\226@\201<^\257\007\300i\267z\343^\321\375\277u\230\2035\377\223\n@\335\030[\013\254\364\340?\266M\020\376<>\365?\360\240\250\322u]\017@\357\'\177\014\2572\034\300$\332\275\003\223\270\355?_\363\323\377\371\234\026\300\362\337O\300jM\001\300!\366\027\353w\r\361\277JN$\312\364\245\362\277\306H\234\363\370\304\r@\362\337O\300jM\001\300\336S\000\211\377\244\035@\rj\310\263\014e\035\300\222\017\207\302\333i\377\277\266M\020\376<>\365?D\220h~d~\004\3000\335\013\325\354\334\026@K\307M\220\273\320\025\300D\220h~d~\004\300\361;\027\030\366\351\356\277\003-\370\t\341\005\023\300\252l\007\254\234{\010\300+\002\017\235\363\027 \300Z\256Az0\240\373?\274\271\257\365\0224\032\3001V5\233\263\007\372?\262\314\372\347\320f&@\320\3455eQ\000\033\300\0338\\\237\347\345\002\300\233\037DD\373\206\315?\362\337O\300jM\001\300\361;\027\030\366\351\356\277#\350jw\005c\007@\262\243\354\275\363\315\031\3000d\342\016&\262\003\300+\002\017\235\363\027 \300\234wfN\265\001\031\300.\311s\311\245%\344?\240\250`\3107G\021@\357\'\177\014\2572\034\300\356\256UF\350\007\371\277#\350jw\005c\007@\336\263\311P,\201\000\3001V5\233\263\007\372?\016l\311k\335\004 @\210K\340\336v5\030\300\336S\000\211\377\244\035@qpS\036q%\325?qpS\036q%\325?\203\215$\223\346\r\032@\305VIgko\367\277\235\360\217\024|,\014@\306H\234\363\370\304\r@\177\2079\373\021\001\001@\305VIgko\367\277\336,\363\026\363\253\023@\214|\332X\371z\020@\n4\006G7\210\327\277\373*\315\335\010W\345\277\335\030[\013\254\364\340?yH\310Is\211\261\277\204\345F\235\240\210\305\277\240\250`\3107G\021@\356\256UF\350\007\371\277\016l\311k\335\004 @\222a\243\026\226\233\030\300\010\376(\2746o\370?\371\0265\322\301\237\022\300JN$\312\364\245\362\277\336S\000\211\377\244\035@,\205\004\351]\236\024\300\241\317m:D@\033@\222\017\207\302\333i\377\277\020I\246\331\324x\014\300&u,I\023E\r\300\266M\020\376<>\365?L\356Z\002\310\311\037\300\371\0265\322\301\237\022\300\266M\020\376<>\365?\224\263\277jP\315\001@K\307M\220\273\320\025\300\356\256UF\350\007\371\277,\254\021[j\227\036\300m\350t]\341\026\006\300\214|\332X\371z\020@\347\360\231\372W\340\n\300\010\376(\2746o\370?\324==Q\340>\035@\026\321\204\232d\207\333?0\335\013\325\354\334\026@;E\353`\306t\360?\034\261\205e\256\020\026@\224\263\277jP\315\001@\306\250e\273%\241\020\300\"\226N#K1\036\300P{=V\250\234\"@\216\377\317\244c\001%@\204\006NY\2558\375?\336\245\034\335\271\326\366?V\006\037\362\267\317\"@f\323\324\312C&\321\277\204\345F\235\240\210\305\2770d\342\016&\262\003\300\373*\315\335\010W\345\277`l\375\305\300\307\t@;E\353`\306t\360?\305VIgko\367\277t\037Zo8i\027\300\3207R\271\0132\004@Z\221\000\216\307\002#@&\307H\235\315v\026@\336\245\034\335\271\326\366?0d\342\016&\262\003\300\320\3455eQ\000\033\300\204\345F\235\240\210\305\277\340\257\350b]2(@qpS\036q%\325?\234\376<\210\356\326\365\277\030Y~y\037\322\023\300i\t\2277\031\003\027\300\376\3611\n\273d)@\215\243\347\312\005t\032@\357\'\177\014\2572\034\300:\243\263p\"\261 \300\177\2079\373\021\001\001@\3207R\271\0132\004@7\024\361\346C/\010@\177\2079\373\021\001\001@c\371\276\227\316\251\017\3000d\342\016&\262\003\300f\323\324\312C&\321\277\224\263\277jP\315\001@!\366\027\353w\r\361\277U\335\020\310\3326\026\300\030\202\214\243\374j @?.\225\0142\344 \300\233\037DD\373\206\315?\n4\006G7\210\327\277\030Y~y\037\322\023\300\226\222\235\220\030\341\020@\336,\363\026\363\253\023@\334t\"c7\221\016@\306\250e\273%\241\020\300\'#1w+\004!@f\323\324\312C&\321\277\357\000r\232\2429\022\30029\364\256Jj!@\363\177\206\370=q\036@\324\0260\337\323E\023@\335\030[\013\254\364\340?\356\256UF\350\007\371\277\371\0265\322\301\237\022\300\rC\273A\000l\023\300\250\337E\332\216\231\002@\357\000r\232\2429\022\300_\363\323\377\371\234\026\300\373*\315\335\010W\345\277\rj\310\263\014e\035\300\374\034 j\226\254\013\300\362\337O\300jM\001\300t\037Zo8i\027\300\345\352\256b\203\323\021\300\rC\273A\000l\023\300t\2460\251q>\364\277\"\226N#K1\036\300d\235\367?C\r\362?<O\267\346i\320!@L\027i,\245b,@\333\373\370\234pf\033\300\202\024\373\314\037\343\006\300\"oA\261>8\024\300_\363\323\377\371\234\026\300-\256\022\023;7!@L\360[\272\230i\"@\255\2247\303*\352\335\277t\2460\251q>\364\277\312\'z\031\301\330\034@\250\215)\206\324g\031\300\222a\243\026\226\233\030\300\030\007b%e\240\372\277e\247\303\305\346h#@\352\305\253\232|\230(@\372\217^\230\210\312\005@Y\274\356\355\242J\005\300\"\230O\333\033\321 @\252l\007\254\234{\010\300\030\007b%e\240\372\277\300\021\267\341\241r\034@\237\213\376Y\374\270\353\277\3207R\271\0132\004@\306H\234\363\370\304\r@\006\014\326/\251\031\002\300;E\353`\306t\360?\023\367\252\007\3557 @\361;\027\030\366\351\356\277\021\233\302-\217\252\025@\204\351\014mD\233$@\215\365\003\037\300\245\363?\210K\340\336v5\030\300\211\304\t\245=`\013@P{=V\250\234\"@\211\304\t\245=`\013@!\366\027\353w\r\361\277\335\030[\013\254\364\340?\250\337E\332\216\231\002@\255\2247\303*\352\335\277P\037U|J\017\030@\351B\266N\022\022\024@\251z\264\037\017&\342\277\216\377\317\244c\001%@"
      }
    }
  }
}
node {
  name: "tensors/component_5"
  op: "Const"
  device: "/device:CPU:0"
  attr {
    key: "_output_shapes"
    value {
      list {
        shape {
          dim {
            size: 313
          }
        }
      }
    }
  }
  attr {
    key: "dtype"
    value {
      type: DT_DOUBLE
    }
  }
  attr {
    key: "value"
    value {
      tensor {
        dtype: DT_DOUBLE
        tensor_shape {
          dim {
            size: 313
          }
        }
        tensor_content: "\273\320\340Q\200u\020\300\367{h\343\204\313\027\300\345eYR\004\273\026\300\306\002\264b\002\033\013\300\003\370V\311\033\343!\300\323\326\375Y\250\341\010\300\256y\251\355\340\325\225?\273\360TV\311\337\020\300{\341\010\211Jm\016\300\260\223v\031\254\021\371?\260SH\344\321\232\032@\324\021\342\211\370\302\034@>\314Ca\343\355\020@\252j\321d\271\027\022\300\311\306\212\2472\024\020\300\357\262\261\261\3375\035@>0\361\274\023\016\005@\311\313\325@a\340\341\277\306\247\333+{\376\312?\375`\240\376\002\251\031\300eQ\360U\331m\007@?XfA\332\363\023\300t\336\371\222\236\246\025@/ SnI\177\035\300rM\226 \006\321\"\300\315\036\373R\254\237\031@\241\231F-\371S\302\277d\337\343^\225V\024\300\250\237\177y\325\252\002\300Ca.\010\223\340\021@>x\352\241\2425\354?S^2!m\213\333\277\024\330L\212a\255\023\300\334\361^\032\300\337\376?Qt\234\302\360W\366?0>n\037x1\030@\363#[PO\361$@\207<\311\364\032c\005@\377\363\352\252\323I\030\300R\315(\230\303\243\373\277\005\252\254U\241\235\030\300\211De<X\r\030@\237\203\210\267t0 @\016\352\\\271\357\246\003\300f\340\276\024\346\274\"@\0148\234\305$\271\351\277\234\353\317\221:\233\353\277.Q\315\014,\201\003\300,\377\215t\027}\027\300#\002A\311\273j\024@\330C?\0354\343\006\300pd[WTl\033\300\367,Z\304\257z\016@\327\254h\3612\223\036\300\315;8x\237\202\332?\206\202\375^\030\300\007\300L\215\273\336\265:\354\277\323&\247#4\227\032\300\376\236\367\336\353\252\027\300\033\3062LLp$@\246\355;-\354\004\017@T\231\006g\314\013\344\277,\"\235u\220\347\373?\200\240\246\375\362\037\035\300YR\305#(\250\016\300\341\341$\320\341\237\033\300\031\232\037\324<~\023@\214X\013\212\307m\025\300i\030\260\3356\177\021\300\254e|\207R\205\364?\272\253\326[oy\003\300q\3571\207\2712\036\300\033\337\272\020\024\317\026\300\206\021\264\2159\347\000@\33076\0332\357\004\300\017\300\305\202GQ\023@\3729\003G\202\326\030@\212U8\000\355\313\366\277\307\263e\026M\223\340?\001\344\330\333\263@\354\277d\270\005\337\rv\010\300\220\307\207\340$t\"\300\225>\257\317N\357\024\300&\t\321n\222\362\n@\367,Z\304\257z\016@\237\357S\027p\213\002\300\216\236\372\316\223M\027\300\273<D@\370\323\037\300\033\327\027\016\364=\005@fx\023\372\277\000\017\300\260?\222\227\363C\002\300{L\332\034R\361\003\300\234\022\010\366\366{\001\300\034\246\265\247T\006\033\300Z\356\\\350\363\331\024@l\272\375\377\344\222\367?T\335\363\034A\241\374?\261\212\330_\t]\006@\266I_4\340 \022@\277\261\323\026\tm\025\300\352r\347j\0275\365\277_h\022\361\013\373\345\277\231\017-\014\312p\325?2[\232\251\030^\023@\204\016aj\263\217\007@\177\021%w\261>\013@\326\314\334\365{\375\036\300g5\370cv\217\361?<\204*-3\200\030\300\340\217\200(&b\006\300\034\205\325\002\206=\372\277\241\231F-\371S\302\277\013\271\330\034;l\375?\022\357|\316\000\327\366\277R\233\345\254-\334\033@\262f\224L\035\224\035\300\\\005\"\r\340\241\003\300\016\323xz\372R\030@X\335\215V\333Z\371\277\340\304\355a\006\'\026@\216\336[?\344\005\032\300\260~\362V[\322\021\300\362\254\326n\354\227\272?Q\027\364cXO\026\300PA\346\366\352y\367\277e\232\225\037\006\227!\300J\026\354\245\327\331\356\277\341\341$\320\341\237\033\300:\244\377\267}\271\360\277\3767eE\206H!@\335\304;T3\344\036\300\016\270+\263\000\217\016\300\017d\243Gra\371?p\216\310\271t\016\366\277\362\254\326n\354\227\272?\274\374\007\033\023\320\361?\026\231G\343\266X\032\300\364S\266\376\033$\006\3003\334\301\000=\341\037\300\226\r\021\010\027\005\030\300\372V?TNO\317?(\243\032\217\254\020\003@!T)?\216J\026\300\262\002\361\370&\277\007\300>x\352\241\2425\354?\200\226O\003\326\021\352?\262\326}\321:\312\024@XO\333 \244q&@\203\230\261\255\351j\033\300\316\371\026BI1\034@\240\0001\0243V\017@D\250:\245\026\325\n@\277\206*\257P\347\034@I\002\226\312\252g\037@F \300\231ZO!@f\201\312v\367\346!@\033\243\366\345\006\323\374?6i\363_7\260\000\300\225\016\325\214\305>\005@d,\377L\027;\031@\336u\340\323\267\311\336?\032U\314^[\245\277?\364\246\3434\2253\376?\036JM\336J\330\336\277\336i6\013\202r\350\277\010PrXg\r\"@\r\033X\326\027V\323\277Hb\304\315\225\263\037@\271\315\212\342\266\316\030\300T\275\rn\317G\360?\260|\324{\225\037\024\300\236\323|\370\034\330\004\300\352!2\036\310O\r@F\364\263\371\3326\031\300\240V\025o\022j\t@\274UY\225.\351\362\277n\210TQ\006i\001\300\224\213\324$\361\374\021\300\315;8x\237\202\332?\201V\371\r\377%!\300#\353\214QF\263\t\300\204\016aj\263\217\007@\0174\342\022\240\241\014@E.{\365o{\023\300W*\200\016~\200\001\300\300C\361i\373\365\037\300\256\026\315?\316C\013\300d\031\260V\203\201\357?\271\243:\0242\317\020\300T=\t\235\017\006\362\277_U\255+\177\251\014@\362\261\340h\222\032\002@ps\265\210\331\005&@,(\372\313%w\026@\304\024\243\033^\370\000@\021\216\3142U)\004@\245\302\031\347\325S\023\300l\231.e\257h \300\352\206\272\021\231\323\024@2R\327\300N\271\030@\352\234\314\344\363;\020@{D\244\306\261P\372?\\\322LF\353\226\032@\000\245h\266\265\020\346\277\356\325\332\035\3673\273\277\000\\P{\375F\016\300fR\243\363\244~\002\300\316\224Z\302T+\025@\035\276\207n\222B\010@\010\243\254\013\370p\340\277#n\267\275\017\002\032\3007\026\004\224\326\265\021@\236\203\200J\027f\034@\316L:\017\215\177\014@;\261\373\353\367e\340?)Yk\034u\374\004\300f\227Y\325ga\032\300\320W4E\374\004\347?R\016\375\345{\352\"@\323$F\360n\353\363\277\032\342\346C\033\347\001\300\342O\276\343\225Y\023\300\314n\306\213a\301\026\300\366\372?/q\336\037@\227\303\266\214\227\343\031@\326\314\334\365{\375\036\300\t\264\262jOT\"\300\317\253\215\2525I\003@\036=?4\376\003\350?\2155\216\030\230C\363?\204\341\215\311\004\001\306?\321\312\252e\262\031\r\300\032\252\212\264m\221\010\300mO\277\365\356\376\356?\242\323\364\205x\346\035@Fh\276\177*\227\326\277\206e\2345!m\022\300\321H\003\354\023D @\210\221C>\321?\"\300\017d\243Gra\371?\351\244\t\332\375b\351\277\304\014\222n\202\030\027\300\005\250\243\r\352V\002@\351>D\210=\232\017@\226w\242\226\236~\032@.Q\315\014,\201\003\300\320x\261r\201\343 @\034\006\261\210\361O\377\277\212k|\3214Q\030\300\374\237\270\234=\273\036@ \234\277\210_\201\025@\304By\227P\023\035@d\342\320\'oO\377?\223Pc.\364\034\345?r\017\222\205\243\006\025\300\311\306\212\2472\024\020\300`\\\222\300\024\205\036@d\270\005\337\rv\010\300@\013A\3547\346\026\300\360\363\207\355\351\371\376?S\030L\302\\B\036\300\370\377\010\216\234F\000\300\022d\246!\004K\005\300\341U\303\266R`\031\300\346\246\312i\3258\007\300\036\016\003<\267-\014\300\003N\000e\370\021\321\277\225\312=\003\3731 \300\373\320\352\334\215\236\340\277M`)\312\3178\032@:\364\276%\312^\"@pd[WTl\033\300\306\002\264b\002\033\013\300YR\305#(\250\016\300H\2143S\252\335\023\300\306\275\206\346j\252\'@\r\226\r\244\244\306!@\237\351\016\200\310\301\001@R\315(\230\303\243\373\277\222\204\205\210\332\r\024@7{\333Z\305)\036\300M\277\374f|\203\035\300\307\263e\026M\223\340?\251\034\356\352\207T!@\342a6J\337\221\036@\255s\234$\332\262\020@U\005u\2439\315\354\277\023\377\n\315P\347\021@PA\346\366\352y\367\277aEi\362)$\001\300\224G\007A\355q\030@\207\221\206\025\222\362\373\2773\307M<I\323\023@\204\2241t\323\243\027@\225\363\262\250U\331\r\3006o\215\203\375b\021@\331\235\2534\031p&@[M\267bW\250\366\277D5\000\017\010\014\013@\250\205R\316\005\023\030@\252-\362\303\347O\n@;\210\371\264\327=\031\300\346r\331\334\306\320\003@\331wc\312T\254\033@7\006\000[\377\312\025@\030^u*\013 \224\277g\343\201\267\266\332\370?\177\261\257\321$]\375?\223Pc.\364\034\345?0\253A\003\206\037\024@\\\236\362|\335\030\022@l\202\017\272^\237\000@i\310L\005\030~\036@"
      }
    }
  }
}
node {
  name: "tensors/component_6"
  op: "Const"
  device: "/device:CPU:0"
  attr {
    key: "_output_shapes"
    value {
      list {
        shape {
          dim {
            size: 313
          }
        }
      }
    }
  }
  attr {
    key: "dtype"
    value {
      type: DT_DOUBLE
    }
  }
  attr {
    key: "value"
    value {
      tensor {
        dtype: DT_DOUBLE
        tensor_shape {
          dim {
            size: 313
          }
        }
        tensor_content: "\370`\313\306^\315\342\277\230\326dN0\004\r@c}\177\273\362s\016@\321\353\355=w\366\373\277\313\372\354\"i\220\030@|\276\204\374\316\323\001@\274\357\354}\240\223\365\277.CA\204\004\246\037\3007$\2401\025\206\340\277\307\253\247v@g\026@\216\215eT\002\363\000@\221\230\3312Y\020\026@\324q\377\230\375\312\032\300\227F\236\001\232n\004@ \362\2308\271\037\025@\345/\036\257\316\302\010\300X\014\231f\347\254\020@\022Ln\337\244I\014@}\354\006\2570\220\365?\266\025E\365\362e\005@\354a\'Tv\023\003@^\357\332M\373\312\014@\237\236\267\310\240\203\024\300\262\213|\030\375L\331\277\002w\033\240Rf$\300\002w\033\240Rf$\300\017\362\342\340\2158\"\300yP?\233l?\003@\313\372\354\"i\220\030@w\316Qo\2161\374?\220\253\264\321\314U\010@yP?\233l?\003@\313\372\354\"i\220\030@\3252\246\360\363x\026@\017gI\014%\202#\300p\275\337\271I\233\354?\226i\277\232t$\030@C\203\222\302\300\017\020@c}\177\273\362s\016@\333`\225\372\257\252\032\300\370\234\241\311\257o\022@\336\001\344\251SQ\022\300]\275\222\256\353!\025\300\021\350\370\312\237\001\020\300\350\025\232\306\373\376\r\300\374\034bc\364d\361?\321\353\355=w\366\373\277\252^1\313\022.\325?q\271\006-!^\362?|\001\203P\344\001\026\300\312\300?-Ue\r@B\022A\246.M\021@P\020\026\340\242\225\002@\010\323\237\324\300C\035\300\217\256S\245\010\010\344?\313\372\354\"i\220\030@\352\255/\365N\360\023\300Nm!\355\366\313\022@Z\272\371\230\300\243#\300\231\205\036#Z\372\036\300\214\352\331px\010\034\300\270\264\000\376G\024#\300F\013\302*\'2\021\300\0222eQ\231\373\006@C\322\237\r\300\370\016@\010\274\201J\311V\022@\231R\363\361\342\270\025@&?y\255l\235\017\300\313\372\354\"i\220\030@\204\372\265\344\204h\003\300s\203\325\017\311N\027\300\313\372\354\"i\220\030@\034\344\014\324\017\240\002@V8\325\323\311\353\352?\3004n\026\314a\001\300\231f\357\020\334\375\027\300`N\031\010-(\014\300#C^\343|\326\027@.\314\325d1\227\353\277\342;&te\321\n\300ABY\335Z>\001@\002w\033\240Rf$\300&?y\255l\235\017\300\370%\026O>6\014@\201Vqf\316;\021@\313\372\354\"i\220\030@e60Q\314\024\006@\002w\033\240Rf$\300P6\373Dy(\023@\005\251T\351Ri\007@\327g\246\373\255D\"\300\301j\024\232F\261\r\300\344\232\236\240qg\341\277\313\372\354\"i\220\030@\306\364\314}]\r\037\3004!\240\364]@\025\300\003\245\"\0033P\003@m\255\270/\005n\014@B\022A\246.M\021@\214\324[H9\237\022@NQ-\333K\216\n\3005\016\341\210 \305\013\300\230 \n\273\356\034\374\2779\"O\305\231\'\351\277 \347\372\032\341v\005\300\226\037\035Z`)\027\300\320\363m\247au\030\300\375=i\014\346\316\001@\320\323@d\244b\026@\376\271|G\275\265\030\300\020\364\276W[|\325?\001\202{\340\304\366#\300\345uj5\356=\364?\313\372\354\"i\220\030@\342\r\322\332k\311\372\277\014\263\017\245@\211\023@c\361\273\303\367h\020\300${ \223\235\017\003@\032+\023\3606\261\317?\357\034\337F0F\032\300\370\234\241\311\257o\022@\032+\023\3606\261\317?\004\332\002C\211x\023@8\364\370Q\372O\006@\261}\210V\307d\020@\313\372\354\"i\220\030@\202~\255L*l\302\277\313\372\354\"i\220\030@YBl\253\335\303#\300~C\225^C\254\017\300\313\372\354\"i\220\030@\366\306\337)\341\245\013\300\"\200\360\312\200\374\037\300\002w\033\240Rf$\300\252\213x\240\005\205\031\300\204\376\232\222K\263\002@\002w\033\240Rf$\300\234\n>\322\333X\024@V\tJg\3155\346?\002w\033\240Rf$\300\312|\322\321\203\241\366\277\017\306\243\026\211A\321\277\002w\033\240Rf$\300\306+6\227\016\271\026@\201\335\313\002)\000\030@\t\200\275\316\"W\013@=PV\2643\322\014@\360\335\223gn\246\024@\014\263\017\245@\211\023@\244\210\331\'ny\022@\252\345f\030\000\333\013\300\320\231\337\312D\033\020\300V\217/\370oA\006\300iS*S\350\023\004@\313\372\354\"i\220\030@9W\227T\251\322\025\300\313\372\354\"i\220\030@\363\310\353\031]\353\023\300\003\375\222\360# \373?&U\333\254\365\354\021@br\240\020\351?!\300\352\311\317\345\032\007\022@zY\037\332a\013$\300.\347^SmI\007@\245\200\232k\260\261\010\300\343\275)\316\301\002\014@\254\345\364\357C\377\002\300\'k >dt\010\300\313\372\354\"i\220\030@\251^\313q\\\354\027@\266v\t\333\277I\020\300\313\372\354\"i\220\030@q\333J^\224\265\004@\262\213|\030\375L\331\277\n\227\201\006\247\267\005\300\021u\032\224\355\265\022@\021-\210\214(\223\025\300\313\372\354\"i\220\030@\003\254=\320\353\230\t@\316u\334\265\305\037\026\300\313\372\354\"i\220\030@O\3346\203\024\351\027@J/\377=\017\003\343?\214\274\231UK\326\337\277s\203\325\017\311N\027\300\0222eQ\231\373\006@\203h\364\212z.\030\300\"\242\357\311\230L\003\300\003\215\326\020ww\034\300\310\205m\377\034\270\024@\240p\2277j\021\013@\003T\322\265\246 \027@\313\372\354\"i\220\030@\240\225\210tZ\323\021@\350\242\300\262~\233\370?\314\207\331\340\311\316\031\300\252^1\313\022.\325?\213]\302\366k-\006\300c\241\202\320qo\010@&\316\371B\227\210\016\300ZQ\016\353%\252 \300\317\266H\254z/\367?\263\346\205\026\236\206\370\277\237\013/\366\217\205\265\277\204\002\206\367\221\202\373?-\262\375\352\352@\374\277\315#,\036\3615\021@\203l\230\250\353Y\340?\362m\315^\230\202\350\277\252\013\351k\276\377\365?\313\372\354\"i\220\030@|\301\017\303g\374\300\277\352\345\n\206\021\274\r@\214\240Z=]Y\004\300\271\323\027a#\310\"\3008\363I\035<<\000\300\002w\033\240Rf$\300\030|X\001?\364\350\277q\305e\324\357k\025@\002w\033\240Rf$\300\3215F\331W\257\002@\002w\033\240Rf$\300\273\033<!R%\"\300{\204\307=\360?\006@\230k\274\243\274\235\377\277g\373\006\177{\007\213?\313\372\354\"i\220\030@\313\372\354\"i\220\030@H\000\033\357PH\006@\307I\361\234I\351\001\300\023\220\337Y\337\311\364?\275\311\331\273\201\250\r@~T\300a\202\323\007@\222\360\013\n\014Y\003\300\274@\351\242\254\002\025\300\360M\203\375\372\342\003@\313\372\354\"i\220\030@}`+\276\017<\026\3008\363I\035<<\000\300(\264|}h\034\032\300\246\273\227\207U\201\363?&\3118z*\314\026@)\010f\006!\206\025@<\353F[\343\"\010@\313\372\354\"i\220\030@\213bg\234\024\260\001\300\320Q\233d\360\325\007\300,\270\223\260\243\324\321\277r\220ay|M\344\277\202\325K\231>\201\013\300\252\341\254t\360^\306\277y\213\317\243\220\034\027@\250\204\374\n\246$\027@\300\3263@\276\021\341\277\313\372\354\"i\220\030@NQ-\333K\216\n\300n\\\275\251\006\352\"\300\254\230;\260\250\013\034\300\320\323@d\244b\026@|\321r\353G[\372?\313\372\354\"i\220\030@\320<\242\332\370\306\007\300\2270kuK\203\273?\002w\033\240Rf$\300=\263\250\204\315\347\035\300\313\372\354\"i\220\030@/\336\036\372+\364\336\277\313\372\354\"i\220\030@T\003\311t\353:\027@\\\215\345w\241X\347\277\366j\204<\324\313\n\300\313\372\354\"i\220\030@\0319\335\322\313\323\003@\313\372\354\"i\220\030@\204c\305@pO#\300\267I\373m\003\247\023@\302\226z\257\276\231\017@\270\271\333YY\304\027@\202\227\204\321\353\007\025@V\tJg\3155\346?\351\242\236\207\217\372\"\300Y\230K\310c\177\026\300\262\213|\030\375L\331\277\250\204\374\n\246$\027@B\307\221\322\352#\025@X\204\316\237\343\313\323\277\004\007,\032O\363\010\300\370%n}\266\025\014\300d\362*\221\320v\362\277\\\340\357\365]\241\027@\201[1i\372\024\026@\343\264\212\344\324\014\026@]\006mE^9\374?\010\260\346X\377\250\022\300\261}\210V\307d\020@\374\002\024\321\213\310\000@!\273T%\317,\030@2 \346Lf\363\372?\316\274\322\0214\203\017@\367L\035h\030\227\371\277{\235\n?\003\362\361\277\313\372\354\"i\220\030@\372\304\346\364\256\357\002\300\363\356@\023\233}\323\277\026\271[,-\365\003@\320\363m\247au\030\300Uo\0015{+\022@a\234\335*\311\354\014@\275\310\300\223\271\006\006@\002w\033\240Rf$\300\201r\357\226|\207\004\300\313\372\354\"i\220\030@E\205+\\\364\270\370?"
      }
    }
  }
}
node {
  name: "tensors/component_7"
  op: "Const"
  device: "/device:CPU:0"
  attr {
    key: "_output_shapes"
    value {
      list {
        shape {
          dim {
            size: 313
          }
        }
      }
    }
  }
  attr {
    key: "dtype"
    value {
      type: DT_INT64
    }
  }
  attr {
    key: "value"
    value {
      tensor {
        dtype: DT_INT64
        tensor_shape {
          dim {
            size: 313
          }
        }
        tensor_content: "\000\000\000\000\000\000\000\000\000\000\000\000\000\000\000\000\001\000\000\000\000\000\000\000\000\000\000\000\000\000\000\000\000\000\000\000\000\000\000\000\000\000\000\000\000\000\000\000\000\000\000\000\000\000\000\000\000\000\000\000\000\000\000\000\000\000\000\000\000\000\000\000\001\000\000\000\000\000\000\000\001\000\000\000\000\000\000\000\001\000\000\000\000\000\000\000\000\000\000\000\000\000\000\000\000\000\000\000\000\000\000\000\001\000\000\000\000\000\000\000\001\000\000\000\000\000\000\000\001\000\000\000\000\000\000\000\001\000\000\000\000\000\000\000\000\000\000\000\000\000\000\000\001\000\000\000\000\000\000\000\001\000\000\000\000\000\000\000\000\000\000\000\000\000\000\000\001\000\000\000\000\000\000\000\001\000\000\000\000\000\000\000\001\000\000\000\000\000\000\000\001\000\000\000\000\000\000\000\001\000\000\000\000\000\000\000\001\000\000\000\000\000\000\000\001\000\000\000\000\000\000\000\001\000\000\000\000\000\000\000\001\000\000\000\000\000\000\000\001\000\000\000\000\000\000\000\001\000\000\000\000\000\000\000\001\000\000\000\000\000\000\000\000\000\000\000\000\000\000\000\000\000\000\000\000\000\000\000\000\000\000\000\000\000\000\000\001\000\000\000\000\000\000\000\000\000\000\000\000\000\000\000\000\000\000\000\000\000\000\000\000\000\000\000\000\000\000\000\000\000\000\000\000\000\000\000\000\000\000\000\000\000\000\000\000\000\000\000\000\000\000\000\000\000\000\000\000\000\000\000\000\000\000\000\000\000\000\000\000\000\000\000\000\000\000\000\000\000\000\000\000\000\000\000\000\000\000\000\000\000\000\000\000\000\000\000\000\000\000\000\001\000\000\000\000\000\000\000\001\000\000\000\000\000\000\000\000\000\000\000\000\000\000\000\000\000\000\000\000\000\000\000\000\000\000\000\000\000\000\000\000\000\000\000\000\000\000\000\000\000\000\000\000\000\000\000\001\000\000\000\000\000\000\000\000\000\000\000\000\000\000\000\000\000\000\000\000\000\000\000\000\000\000\000\000\000\000\000\000\000\000\000\000\000\000\000\000\000\000\000\000\000\000\000\000\000\000\000\000\000\000\000\000\000\000\000\000\000\000\000\000\000\000\000\000\000\000\000\001\000\000\000\000\000\000\000\000\000\000\000\000\000\000\000\001\000\000\000\000\000\000\000\000\000\000\000\000\000\000\000\000\000\000\000\000\000\000\000\000\000\000\000\000\000\000\000\000\000\000\000\000\000\000\000\000\000\000\000\000\000\000\000\001\000\000\000\000\000\000\000\000\000\000\000\000\000\000\000\000\000\000\000\000\000\000\000\001\000\000\000\000\000\000\000\000\000\000\000\000\000\000\000\000\000\000\000\000\000\000\000\000\000\000\000\000\000\000\000\001\000\000\000\000\000\000\000\001\000\000\000\000\000\000\000\001\000\000\000\000\000\000\000\001\000\000\000\000\000\000\000\001\000\000\000\000\000\000\000\001\000\000\000\000\000\000\000\001\000\000\000\000\000\000\000\001\000\000\000\000\000\000\000\001\000\000\000\000\000\000\000\000\000\000\000\000\000\000\000\000\000\000\000\000\000\000\000\000\000\000\000\000\000\000\000\000\000\000\000\000\000\000\000\000\000\000\000\000\000\000\000\000\000\000\000\000\000\000\000\000\000\000\000\000\000\000\000\000\000\000\000\000\000\000\000\000\000\000\000\000\000\000\000\000\000\000\000\000\000\000\000\000\000\000\000\000\000\000\000\000\000\000\000\000\000\000\000\000\000\000\000\000\000\000\000\000\000\000\000\000\000\000\000\000\000\000\000\000\000\000\000\000\000\000\000\000\000\000\000\000\000\000\000\000\000\000\000\000\000\000\000\000\000\000\000\000\000\000\000\000\000\000\000\000\000\000\000\000\000\000\000\000\000\000\000\000\000\000\000\000\000\000\000\000\000\000\000\000\000\000\000\000\000\000\000\000\000\000\000\000\000\000\000\000\000\000\000\000\000\000\000\000\000\000\000\000\000\000\000\000\000\000\000\000\000\000\000\000\000\000\000\000\000\000\000\000\000\000\000\000\000\000\000\000\000\000\000\000\000\000\000\000\000\000\000\000\000\000\000\000\000\000\000\000\000\000\000\000\000\000\000\000\000\000\000\001\000\000\000\000\000\000\000\001\000\000\000\000\000\000\000\000\000\000\000\000\000\000\000\001\000\000\000\000\000\000\000\000\000\000\000\000\000\000\000\000\000\000\000\000\000\000\000\000\000\000\000\000\000\000\000\001\000\000\000\000\000\000\000\001\000\000\000\000\000\000\000\001\000\000\000\000\000\000\000\001\000\000\000\000\000\000\000\000\000\000\000\000\000\000\000\000\000\000\000\000\000\000\000\000\000\000\000\000\000\000\000\000\000\000\000\000\000\000\000\000\000\000\000\000\000\000\000\000\000\000\000\000\000\000\000\000\000\000\000\000\000\000\000\000\000\000\000\000\000\000\000\001\000\000\000\000\000\000\000\000\000\000\000\000\000\000\000\001\000\000\000\000\000\000\000\000\000\000\000\000\000\000\000\000\000\000\000\000\000\000\000\001\000\000\000\000\000\000\000\001\000\000\000\000\000\000\000\001\000\000\000\000\000\000\000\001\000\000\000\000\000\000\000\001\000\000\000\000\000\000\000\001\000\000\000\000\000\000\000\001\000\000\000\000\000\000\000\001\000\000\000\000\000\000\000\001\000\000\000\000\000\000\000\001\000\000\000\000\000\000\000\001\000\000\000\000\000\000\000\001\000\000\000\000\000\000\000\000\000\000\000\000\000\000\000\000\000\000\000\000\000\000\000\000\000\000\000\000\000\000\000\000\000\000\000\000\000\000\000\000\000\000\000\000\000\000\000\000\000\000\000\000\000\000\000\000\000\000\000\000\000\000\000\000\000\000\000\000\000\000\000\000\000\000\000\000\000\000\000\001\000\000\000\000\000\000\000\001\000\000\000\000\000\000\000\000\000\000\000\000\000\000\000\001\000\000\000\000\000\000\000\000\000\000\000\000\000\000\000\000\000\000\000\000\000\000\000\000\000\000\000\000\000\000\000\000\000\000\000\000\000\000\000\000\000\000\000\000\000\000\000\001\000\000\000\000\000\000\000\001\000\000\000\000\000\000\000\000\000\000\000\000\000\000\000\000\000\000\000\000\000\000\000\001\000\000\000\000\000\000\000\000\000\000\000\000\000\000\000\000\000\000\000\000\000\000\000\000\000\000\000\000\000\000\000\000\000\000\000\000\000\000\000\000\000\000\000\000\000\000\000\000\000\000\000\000\000\000\000\000\000\000\000\000\000\000\000\000\000\000\000\000\000\000\000\001\000\000\000\000\000\000\000\001\000\000\000\000\000\000\000\001\000\000\000\000\000\000\000\001\000\000\000\000\000\000\000\001\000\000\000\000\000\000\000\000\000\000\000\000\000\000\000\000\000\000\000\000\000\000\000\000\000\000\000\000\000\000\000\000\000\000\000\000\000\000\000\000\000\000\000\000\000\000\000\000\000\000\000\000\000\000\000\000\000\000\000\000\000\000\000\000\000\000\000\000\000\000\000\000\000\000\000\000\000\000\000\000\000\000\000\000\000\000\000\000\000\000\000\000\000\000\000\001\000\000\000\000\000\000\000\001\000\000\000\000\000\000\000\000\000\000\000\000\000\000\000\000\000\000\000\000\000\000\000\001\000\000\000\000\000\000\000\001\000\000\000\000\000\000\000\001\000\000\000\000\000\000\000\001\000\000\000\000\000\000\000\000\000\000\000\000\000\000\000\000\000\000\000\000\000\000\000\000\000\000\000\000\000\000\000\001\000\000\000\000\000\000\000\001\000\000\000\000\000\000\000\001\000\000\000\000\000\000\000\001\000\000\000\000\000\000\000\000\000\000\000\000\000\000\000\001\000\000\000\000\000\000\000\001\000\000\000\000\000\000\000\000\000\000\000\000\000\000\000\001\000\000\000\000\000\000\000\001\000\000\000\000\000\000\000\001\000\000\000\000\000\000\000\000\000\000\000\000\000\000\000\000\000\000\000\000\000\000\000\000\000\000\000\000\000\000\000\001\000\000\000\000\000\000\000\001\000\000\000\000\000\000\000\000\000\000\000\000\000\000\000\000\000\000\000\000\000\000\000\001\000\000\000\000\000\000\000\000\000\000\000\000\000\000\000\000\000\000\000\000\000\000\000\000\000\000\000\000\000\000\000\000\000\000\000\000\000\000\000\000\000\000\000\000\000\000\000\001\000\000\000\000\000\000\000\001\000\000\000\000\000\000\000\001\000\000\000\000\000\000\000\001\000\000\000\000\000\000\000\000\000\000\000\000\000\000\000\000\000\000\000\000\000\000\000\001\000\000\000\000\000\000\000\000\000\000\000\000\000\000\000\000\000\000\000\000\000\000\000\001\000\000\000\000\000\000\000\001\000\000\000\000\000\000\000\001\000\000\000\000\000\000\000\000\000\000\000\000\000\000\000\001\000\000\000\000\000\000\000\000\000\000\000\000\000\000\000\000\000\000\000\000\000\000\000\000\000\000\000\000\000\000\000\001\000\000\000\000\000\000\000\001\000\000\000\000\000\000\000\000\000\000\000\000\000\000\000\000\000\000\000\000\000\000\000\001\000\000\000\000\000\000\000\000\000\000\000\000\000\000\000\000\000\000\000\000\000\000\000\001\000\000\000\000\000\000\000\001\000\000\000\000\000\000\000\000\000\000\000\000\000\000\000\001\000\000\000\000\000\000\000\001\000\000\000\000\000\000\000\001\000\000\000\000\000\000\000\001\000\000\000\000\000\000\000\001\000\000\000\000\000\000\000\001\000\000\000\000\000\000\000\001\000\000\000\000\000\000\000\001\000\000\000\000\000\000\000\001\000\000\000\000\000\000\000\001\000\000\000\000\000\000\000\001\000\000\000\000\000\000\000\001\000\000\000\000\000\000\000\001\000\000\000\000\000\000\000\001\000\000\000\000\000\000\000\000\000\000\000\000\000\000\000\001\000\000\000\000\000\000\000\000\000\000\000\000\000\000\000\000\000\000\000\000\000\000\000\000\000\000\000\000\000\000\000\000\000\000\000\000\000\000\000\000\000\000\000\000\000\000\000\001\000\000\000\000\000\000\000\000\000\000\000\000\000\000\000\001\000\000\000\000\000\000\000\001\000\000\000\000\000\000\000\000\000\000\000\000\000\000\000\001\000\000\000\000\000\000\000\001\000\000\000\000\000\000\000\001\000\000\000\000\000\000\000\001\000\000\000\000\000\000\000\001\000\000\000\000\000\000\000\001\000\000\000\000\000\000\000\000\000\000\000\000\000\000\000\001\000\000\000\000\000\000\000\000\000\000\000\000\000\000\000\000\000\000\000\000\000\000\000\000\000\000\000\000\000\000\000\000\000\000\000\000\000\000\000\001\000\000\000\000\000\000\000\001\000\000\000\000\000\000\000\001\000\000\000\000\000\000\000\000\000\000\000\000\000\000\000\000\000\000\000\000\000\000\000\001\000\000\000\000\000\000\000\001\000\000\000\000\000\000\000"
      }
    }
  }
}
node {
  name: "batch_size"
  op: "Const"
  device: "/device:CPU:0"
  attr {
    key: "_output_shapes"
    value {
      list {
        shape {
        }
      }
    }
  }
  attr {
    key: "dtype"
    value {
      type: DT_INT64
    }
  }
  attr {
    key: "value"
    value {
      tensor {
        dtype: DT_INT64
        tensor_shape {
        }
        int64_val: 70
      }
    }
  }
}
node {
  name: "drop_remainder"
  op: "Const"
  device: "/device:CPU:0"
  attr {
    key: "_output_shapes"
    value {
      list {
        shape {
        }
      }
    }
  }
  attr {
    key: "dtype"
    value {
      type: DT_BOOL
    }
  }
  attr {
    key: "value"
    value {
      tensor {
        dtype: DT_BOOL
        tensor_shape {
        }
        bool_val: false
      }
    }
  }
}
node {
  name: "count"
  op: "Const"
  device: "/device:CPU:0"
  attr {
    key: "_output_shapes"
    value {
      list {
        shape {
        }
      }
    }
  }
  attr {
    key: "dtype"
    value {
      type: DT_INT64
    }
  }
  attr {
    key: "value"
    value {
      tensor {
        dtype: DT_INT64
        tensor_shape {
        }
        int64_val: -1
      }
    }
  }
}
node {
  name: "OneShotIterator"
  op: "OneShotIterator"
  device: "/device:CPU:0"
  attr {
    key: "_output_shapes"
    value {
      list {
        shape {
        }
      }
    }
  }
  attr {
    key: "container"
    value {
      s: ""
    }
  }
  attr {
    key: "dataset_factory"
    value {
      func {
        name: "_make_dataset_Wx3kU5Ik7TQ"
      }
    }
  }
  attr {
    key: "output_shapes"
    value {
      list {
        shape {
          dim {
            size: -1
          }
        }
        shape {
          dim {
            size: -1
          }
        }
        shape {
          dim {
            size: -1
          }
        }
        shape {
          dim {
            size: -1
          }
        }
        shape {
          dim {
            size: -1
          }
        }
        shape {
          dim {
            size: -1
          }
        }
        shape {
          dim {
            size: -1
          }
        }
        shape {
          dim {
            size: -1
          }
        }
      }
    }
  }
  attr {
    key: "output_types"
    value {
      list {
        type: DT_DOUBLE
        type: DT_DOUBLE
        type: DT_DOUBLE
        type: DT_DOUBLE
        type: DT_DOUBLE
        type: DT_DOUBLE
        type: DT_DOUBLE
        type: DT_INT64
      }
    }
  }
  attr {
    key: "shared_name"
    value {
      s: ""
    }
  }
}
node {
  name: "IteratorToStringHandle"
  op: "IteratorToStringHandle"
  input: "OneShotIterator"
  device: "/device:CPU:0"
  attr {
    key: "_output_shapes"
    value {
      list {
        shape {
        }
      }
    }
  }
}
node {
  name: "IteratorGetNext"
  op: "IteratorGetNext"
  input: "OneShotIterator"
  device: "/device:CPU:0"
  attr {
    key: "_output_shapes"
    value {
      list {
        shape {
          dim {
            size: -1
          }
        }
        shape {
          dim {
            size: -1
          }
        }
        shape {
          dim {
            size: -1
          }
        }
        shape {
          dim {
            size: -1
          }
        }
        shape {
          dim {
            size: -1
          }
        }
        shape {
          dim {
            size: -1
          }
        }
        shape {
          dim {
            size: -1
          }
        }
        shape {
          dim {
            size: -1
          }
        }
      }
    }
  }
  attr {
    key: "output_shapes"
    value {
      list {
        shape {
          dim {
            size: -1
          }
        }
        shape {
          dim {
            size: -1
          }
        }
        shape {
          dim {
            size: -1
          }
        }
        shape {
          dim {
            size: -1
          }
        }
        shape {
          dim {
            size: -1
          }
        }
        shape {
          dim {
            size: -1
          }
        }
        shape {
          dim {
            size: -1
          }
        }
        shape {
          dim {
            size: -1
          }
        }
      }
    }
  }
  attr {
    key: "output_types"
    value {
      list {
        type: DT_DOUBLE
        type: DT_DOUBLE
        type: DT_DOUBLE
        type: DT_DOUBLE
        type: DT_DOUBLE
        type: DT_DOUBLE
        type: DT_DOUBLE
        type: DT_INT64
      }
    }
  }
}
node {
  name: "dnn/input_from_feature_columns/input_layer/del_asa_all/ExpandDims/dim"
  op: "Const"
  attr {
    key: "_output_shapes"
    value {
      list {
        shape {
        }
      }
    }
  }
  attr {
    key: "dtype"
    value {
      type: DT_INT32
    }
  }
  attr {
    key: "value"
    value {
      tensor {
        dtype: DT_INT32
        tensor_shape {
        }
        int_val: -1
      }
    }
  }
}
node {
  name: "dnn/input_from_feature_columns/input_layer/del_asa_all/ExpandDims"
  op: "ExpandDims"
  input: "IteratorGetNext"
  input: "dnn/input_from_feature_columns/input_layer/del_asa_all/ExpandDims/dim"
  attr {
    key: "T"
    value {
      type: DT_DOUBLE
    }
  }
  attr {
    key: "Tdim"
    value {
      type: DT_INT32
    }
  }
  attr {
    key: "_output_shapes"
    value {
      list {
        shape {
          dim {
            size: -1
          }
          dim {
            size: 1
          }
        }
      }
    }
  }
}
node {
  name: "dnn/input_from_feature_columns/input_layer/del_asa_all/ToFloat"
  op: "Cast"
  input: "dnn/input_from_feature_columns/input_layer/del_asa_all/ExpandDims"
  attr {
    key: "DstT"
    value {
      type: DT_FLOAT
    }
  }
  attr {
    key: "SrcT"
    value {
      type: DT_DOUBLE
    }
  }
  attr {
    key: "Truncate"
    value {
      b: false
    }
  }
  attr {
    key: "_output_shapes"
    value {
      list {
        shape {
          dim {
            size: -1
          }
          dim {
            size: 1
          }
        }
      }
    }
  }
}
node {
  name: "dnn/input_from_feature_columns/input_layer/del_asa_all/Shape"
  op: "Shape"
  input: "dnn/input_from_feature_columns/input_layer/del_asa_all/ToFloat"
  attr {
    key: "T"
    value {
      type: DT_FLOAT
    }
  }
  attr {
    key: "_output_shapes"
    value {
      list {
        shape {
          dim {
            size: 2
          }
        }
      }
    }
  }
  attr {
    key: "out_type"
    value {
      type: DT_INT32
    }
  }
}
node {
  name: "dnn/input_from_feature_columns/input_layer/del_asa_all/strided_slice/stack"
  op: "Const"
  attr {
    key: "_output_shapes"
    value {
      list {
        shape {
          dim {
            size: 1
          }
        }
      }
    }
  }
  attr {
    key: "dtype"
    value {
      type: DT_INT32
    }
  }
  attr {
    key: "value"
    value {
      tensor {
        dtype: DT_INT32
        tensor_shape {
          dim {
            size: 1
          }
        }
        int_val: 0
      }
    }
  }
}
node {
  name: "dnn/input_from_feature_columns/input_layer/del_asa_all/strided_slice/stack_1"
  op: "Const"
  attr {
    key: "_output_shapes"
    value {
      list {
        shape {
          dim {
            size: 1
          }
        }
      }
    }
  }
  attr {
    key: "dtype"
    value {
      type: DT_INT32
    }
  }
  attr {
    key: "value"
    value {
      tensor {
        dtype: DT_INT32
        tensor_shape {
          dim {
            size: 1
          }
        }
        int_val: 1
      }
    }
  }
}
node {
  name: "dnn/input_from_feature_columns/input_layer/del_asa_all/strided_slice/stack_2"
  op: "Const"
  attr {
    key: "_output_shapes"
    value {
      list {
        shape {
          dim {
            size: 1
          }
        }
      }
    }
  }
  attr {
    key: "dtype"
    value {
      type: DT_INT32
    }
  }
  attr {
    key: "value"
    value {
      tensor {
        dtype: DT_INT32
        tensor_shape {
          dim {
            size: 1
          }
        }
        int_val: 1
      }
    }
  }
}
node {
  name: "dnn/input_from_feature_columns/input_layer/del_asa_all/strided_slice"
  op: "StridedSlice"
  input: "dnn/input_from_feature_columns/input_layer/del_asa_all/Shape"
  input: "dnn/input_from_feature_columns/input_layer/del_asa_all/strided_slice/stack"
  input: "dnn/input_from_feature_columns/input_layer/del_asa_all/strided_slice/stack_1"
  input: "dnn/input_from_feature_columns/input_layer/del_asa_all/strided_slice/stack_2"
  attr {
    key: "Index"
    value {
      type: DT_INT32
    }
  }
  attr {
    key: "T"
    value {
      type: DT_INT32
    }
  }
  attr {
    key: "_output_shapes"
    value {
      list {
        shape {
        }
      }
    }
  }
  attr {
    key: "begin_mask"
    value {
      i: 0
    }
  }
  attr {
    key: "ellipsis_mask"
    value {
      i: 0
    }
  }
  attr {
    key: "end_mask"
    value {
      i: 0
    }
  }
  attr {
    key: "new_axis_mask"
    value {
      i: 0
    }
  }
  attr {
    key: "shrink_axis_mask"
    value {
      i: 1
    }
  }
}
node {
  name: "dnn/input_from_feature_columns/input_layer/del_asa_all/Reshape/shape/1"
  op: "Const"
  attr {
    key: "_output_shapes"
    value {
      list {
        shape {
        }
      }
    }
  }
  attr {
    key: "dtype"
    value {
      type: DT_INT32
    }
  }
  attr {
    key: "value"
    value {
      tensor {
        dtype: DT_INT32
        tensor_shape {
        }
        int_val: 1
      }
    }
  }
}
node {
  name: "dnn/input_from_feature_columns/input_layer/del_asa_all/Reshape/shape"
  op: "Pack"
  input: "dnn/input_from_feature_columns/input_layer/del_asa_all/strided_slice"
  input: "dnn/input_from_feature_columns/input_layer/del_asa_all/Reshape/shape/1"
  attr {
    key: "N"
    value {
      i: 2
    }
  }
  attr {
    key: "T"
    value {
      type: DT_INT32
    }
  }
  attr {
    key: "_output_shapes"
    value {
      list {
        shape {
          dim {
            size: 2
          }
        }
      }
    }
  }
  attr {
    key: "axis"
    value {
      i: 0
    }
  }
}
node {
  name: "dnn/input_from_feature_columns/input_layer/del_asa_all/Reshape"
  op: "Reshape"
  input: "dnn/input_from_feature_columns/input_layer/del_asa_all/ToFloat"
  input: "dnn/input_from_feature_columns/input_layer/del_asa_all/Reshape/shape"
  attr {
    key: "T"
    value {
      type: DT_FLOAT
    }
  }
  attr {
    key: "Tshape"
    value {
      type: DT_INT32
    }
  }
  attr {
    key: "_output_shapes"
    value {
      list {
        shape {
          dim {
            size: -1
          }
          dim {
            size: 1
          }
        }
      }
    }
  }
}
node {
  name: "dnn/input_from_feature_columns/input_layer/del_rasa_all/ExpandDims/dim"
  op: "Const"
  attr {
    key: "_output_shapes"
    value {
      list {
        shape {
        }
      }
    }
  }
  attr {
    key: "dtype"
    value {
      type: DT_INT32
    }
  }
  attr {
    key: "value"
    value {
      tensor {
        dtype: DT_INT32
        tensor_shape {
        }
        int_val: -1
      }
    }
  }
}
node {
  name: "dnn/input_from_feature_columns/input_layer/del_rasa_all/ExpandDims"
  op: "ExpandDims"
  input: "IteratorGetNext:1"
  input: "dnn/input_from_feature_columns/input_layer/del_rasa_all/ExpandDims/dim"
  attr {
    key: "T"
    value {
      type: DT_DOUBLE
    }
  }
  attr {
    key: "Tdim"
    value {
      type: DT_INT32
    }
  }
  attr {
    key: "_output_shapes"
    value {
      list {
        shape {
          dim {
            size: -1
          }
          dim {
            size: 1
          }
        }
      }
    }
  }
}
node {
  name: "dnn/input_from_feature_columns/input_layer/del_rasa_all/ToFloat"
  op: "Cast"
  input: "dnn/input_from_feature_columns/input_layer/del_rasa_all/ExpandDims"
  attr {
    key: "DstT"
    value {
      type: DT_FLOAT
    }
  }
  attr {
    key: "SrcT"
    value {
      type: DT_DOUBLE
    }
  }
  attr {
    key: "Truncate"
    value {
      b: false
    }
  }
  attr {
    key: "_output_shapes"
    value {
      list {
        shape {
          dim {
            size: -1
          }
          dim {
            size: 1
          }
        }
      }
    }
  }
}
node {
  name: "dnn/input_from_feature_columns/input_layer/del_rasa_all/Shape"
  op: "Shape"
  input: "dnn/input_from_feature_columns/input_layer/del_rasa_all/ToFloat"
  attr {
    key: "T"
    value {
      type: DT_FLOAT
    }
  }
  attr {
    key: "_output_shapes"
    value {
      list {
        shape {
          dim {
            size: 2
          }
        }
      }
    }
  }
  attr {
    key: "out_type"
    value {
      type: DT_INT32
    }
  }
}
node {
  name: "dnn/input_from_feature_columns/input_layer/del_rasa_all/strided_slice/stack"
  op: "Const"
  attr {
    key: "_output_shapes"
    value {
      list {
        shape {
          dim {
            size: 1
          }
        }
      }
    }
  }
  attr {
    key: "dtype"
    value {
      type: DT_INT32
    }
  }
  attr {
    key: "value"
    value {
      tensor {
        dtype: DT_INT32
        tensor_shape {
          dim {
            size: 1
          }
        }
        int_val: 0
      }
    }
  }
}
node {
  name: "dnn/input_from_feature_columns/input_layer/del_rasa_all/strided_slice/stack_1"
  op: "Const"
  attr {
    key: "_output_shapes"
    value {
      list {
        shape {
          dim {
            size: 1
          }
        }
      }
    }
  }
  attr {
    key: "dtype"
    value {
      type: DT_INT32
    }
  }
  attr {
    key: "value"
    value {
      tensor {
        dtype: DT_INT32
        tensor_shape {
          dim {
            size: 1
          }
        }
        int_val: 1
      }
    }
  }
}
node {
  name: "dnn/input_from_feature_columns/input_layer/del_rasa_all/strided_slice/stack_2"
  op: "Const"
  attr {
    key: "_output_shapes"
    value {
      list {
        shape {
          dim {
            size: 1
          }
        }
      }
    }
  }
  attr {
    key: "dtype"
    value {
      type: DT_INT32
    }
  }
  attr {
    key: "value"
    value {
      tensor {
        dtype: DT_INT32
        tensor_shape {
          dim {
            size: 1
          }
        }
        int_val: 1
      }
    }
  }
}
node {
  name: "dnn/input_from_feature_columns/input_layer/del_rasa_all/strided_slice"
  op: "StridedSlice"
  input: "dnn/input_from_feature_columns/input_layer/del_rasa_all/Shape"
  input: "dnn/input_from_feature_columns/input_layer/del_rasa_all/strided_slice/stack"
  input: "dnn/input_from_feature_columns/input_layer/del_rasa_all/strided_slice/stack_1"
  input: "dnn/input_from_feature_columns/input_layer/del_rasa_all/strided_slice/stack_2"
  attr {
    key: "Index"
    value {
      type: DT_INT32
    }
  }
  attr {
    key: "T"
    value {
      type: DT_INT32
    }
  }
  attr {
    key: "_output_shapes"
    value {
      list {
        shape {
        }
      }
    }
  }
  attr {
    key: "begin_mask"
    value {
      i: 0
    }
  }
  attr {
    key: "ellipsis_mask"
    value {
      i: 0
    }
  }
  attr {
    key: "end_mask"
    value {
      i: 0
    }
  }
  attr {
    key: "new_axis_mask"
    value {
      i: 0
    }
  }
  attr {
    key: "shrink_axis_mask"
    value {
      i: 1
    }
  }
}
node {
  name: "dnn/input_from_feature_columns/input_layer/del_rasa_all/Reshape/shape/1"
  op: "Const"
  attr {
    key: "_output_shapes"
    value {
      list {
        shape {
        }
      }
    }
  }
  attr {
    key: "dtype"
    value {
      type: DT_INT32
    }
  }
  attr {
    key: "value"
    value {
      tensor {
        dtype: DT_INT32
        tensor_shape {
        }
        int_val: 1
      }
    }
  }
}
node {
  name: "dnn/input_from_feature_columns/input_layer/del_rasa_all/Reshape/shape"
  op: "Pack"
  input: "dnn/input_from_feature_columns/input_layer/del_rasa_all/strided_slice"
  input: "dnn/input_from_feature_columns/input_layer/del_rasa_all/Reshape/shape/1"
  attr {
    key: "N"
    value {
      i: 2
    }
  }
  attr {
    key: "T"
    value {
      type: DT_INT32
    }
  }
  attr {
    key: "_output_shapes"
    value {
      list {
        shape {
          dim {
            size: 2
          }
        }
      }
    }
  }
  attr {
    key: "axis"
    value {
      i: 0
    }
  }
}
node {
  name: "dnn/input_from_feature_columns/input_layer/del_rasa_all/Reshape"
  op: "Reshape"
  input: "dnn/input_from_feature_columns/input_layer/del_rasa_all/ToFloat"
  input: "dnn/input_from_feature_columns/input_layer/del_rasa_all/Reshape/shape"
  attr {
    key: "T"
    value {
      type: DT_FLOAT
    }
  }
  attr {
    key: "Tshape"
    value {
      type: DT_INT32
    }
  }
  attr {
    key: "_output_shapes"
    value {
      list {
        shape {
          dim {
            size: -1
          }
          dim {
            size: 1
          }
        }
      }
    }
  }
}
node {
  name: "dnn/input_from_feature_columns/input_layer/hydrophilicity/ExpandDims/dim"
  op: "Const"
  attr {
    key: "_output_shapes"
    value {
      list {
        shape {
        }
      }
    }
  }
  attr {
    key: "dtype"
    value {
      type: DT_INT32
    }
  }
  attr {
    key: "value"
    value {
      tensor {
        dtype: DT_INT32
        tensor_shape {
        }
        int_val: -1
      }
    }
  }
}
node {
  name: "dnn/input_from_feature_columns/input_layer/hydrophilicity/ExpandDims"
  op: "ExpandDims"
  input: "IteratorGetNext:2"
  input: "dnn/input_from_feature_columns/input_layer/hydrophilicity/ExpandDims/dim"
  attr {
    key: "T"
    value {
      type: DT_DOUBLE
    }
  }
  attr {
    key: "Tdim"
    value {
      type: DT_INT32
    }
  }
  attr {
    key: "_output_shapes"
    value {
      list {
        shape {
          dim {
            size: -1
          }
          dim {
            size: 1
          }
        }
      }
    }
  }
}
node {
  name: "dnn/input_from_feature_columns/input_layer/hydrophilicity/ToFloat"
  op: "Cast"
  input: "dnn/input_from_feature_columns/input_layer/hydrophilicity/ExpandDims"
  attr {
    key: "DstT"
    value {
      type: DT_FLOAT
    }
  }
  attr {
    key: "SrcT"
    value {
      type: DT_DOUBLE
    }
  }
  attr {
    key: "Truncate"
    value {
      b: false
    }
  }
  attr {
    key: "_output_shapes"
    value {
      list {
        shape {
          dim {
            size: -1
          }
          dim {
            size: 1
          }
        }
      }
    }
  }
}
node {
  name: "dnn/input_from_feature_columns/input_layer/hydrophilicity/Shape"
  op: "Shape"
  input: "dnn/input_from_feature_columns/input_layer/hydrophilicity/ToFloat"
  attr {
    key: "T"
    value {
      type: DT_FLOAT
    }
  }
  attr {
    key: "_output_shapes"
    value {
      list {
        shape {
          dim {
            size: 2
          }
        }
      }
    }
  }
  attr {
    key: "out_type"
    value {
      type: DT_INT32
    }
  }
}
node {
  name: "dnn/input_from_feature_columns/input_layer/hydrophilicity/strided_slice/stack"
  op: "Const"
  attr {
    key: "_output_shapes"
    value {
      list {
        shape {
          dim {
            size: 1
          }
        }
      }
    }
  }
  attr {
    key: "dtype"
    value {
      type: DT_INT32
    }
  }
  attr {
    key: "value"
    value {
      tensor {
        dtype: DT_INT32
        tensor_shape {
          dim {
            size: 1
          }
        }
        int_val: 0
      }
    }
  }
}
node {
  name: "dnn/input_from_feature_columns/input_layer/hydrophilicity/strided_slice/stack_1"
  op: "Const"
  attr {
    key: "_output_shapes"
    value {
      list {
        shape {
          dim {
            size: 1
          }
        }
      }
    }
  }
  attr {
    key: "dtype"
    value {
      type: DT_INT32
    }
  }
  attr {
    key: "value"
    value {
      tensor {
        dtype: DT_INT32
        tensor_shape {
          dim {
            size: 1
          }
        }
        int_val: 1
      }
    }
  }
}
node {
  name: "dnn/input_from_feature_columns/input_layer/hydrophilicity/strided_slice/stack_2"
  op: "Const"
  attr {
    key: "_output_shapes"
    value {
      list {
        shape {
          dim {
            size: 1
          }
        }
      }
    }
  }
  attr {
    key: "dtype"
    value {
      type: DT_INT32
    }
  }
  attr {
    key: "value"
    value {
      tensor {
        dtype: DT_INT32
        tensor_shape {
          dim {
            size: 1
          }
        }
        int_val: 1
      }
    }
  }
}
node {
  name: "dnn/input_from_feature_columns/input_layer/hydrophilicity/strided_slice"
  op: "StridedSlice"
  input: "dnn/input_from_feature_columns/input_layer/hydrophilicity/Shape"
  input: "dnn/input_from_feature_columns/input_layer/hydrophilicity/strided_slice/stack"
  input: "dnn/input_from_feature_columns/input_layer/hydrophilicity/strided_slice/stack_1"
  input: "dnn/input_from_feature_columns/input_layer/hydrophilicity/strided_slice/stack_2"
  attr {
    key: "Index"
    value {
      type: DT_INT32
    }
  }
  attr {
    key: "T"
    value {
      type: DT_INT32
    }
  }
  attr {
    key: "_output_shapes"
    value {
      list {
        shape {
        }
      }
    }
  }
  attr {
    key: "begin_mask"
    value {
      i: 0
    }
  }
  attr {
    key: "ellipsis_mask"
    value {
      i: 0
    }
  }
  attr {
    key: "end_mask"
    value {
      i: 0
    }
  }
  attr {
    key: "new_axis_mask"
    value {
      i: 0
    }
  }
  attr {
    key: "shrink_axis_mask"
    value {
      i: 1
    }
  }
}
node {
  name: "dnn/input_from_feature_columns/input_layer/hydrophilicity/Reshape/shape/1"
  op: "Const"
  attr {
    key: "_output_shapes"
    value {
      list {
        shape {
        }
      }
    }
  }
  attr {
    key: "dtype"
    value {
      type: DT_INT32
    }
  }
  attr {
    key: "value"
    value {
      tensor {
        dtype: DT_INT32
        tensor_shape {
        }
        int_val: 1
      }
    }
  }
}
node {
  name: "dnn/input_from_feature_columns/input_layer/hydrophilicity/Reshape/shape"
  op: "Pack"
  input: "dnn/input_from_feature_columns/input_layer/hydrophilicity/strided_slice"
  input: "dnn/input_from_feature_columns/input_layer/hydrophilicity/Reshape/shape/1"
  attr {
    key: "N"
    value {
      i: 2
    }
  }
  attr {
    key: "T"
    value {
      type: DT_INT32
    }
  }
  attr {
    key: "_output_shapes"
    value {
      list {
        shape {
          dim {
            size: 2
          }
        }
      }
    }
  }
  attr {
    key: "axis"
    value {
      i: 0
    }
  }
}
node {
  name: "dnn/input_from_feature_columns/input_layer/hydrophilicity/Reshape"
  op: "Reshape"
  input: "dnn/input_from_feature_columns/input_layer/hydrophilicity/ToFloat"
  input: "dnn/input_from_feature_columns/input_layer/hydrophilicity/Reshape/shape"
  attr {
    key: "T"
    value {
      type: DT_FLOAT
    }
  }
  attr {
    key: "Tshape"
    value {
      type: DT_INT32
    }
  }
  attr {
    key: "_output_shapes"
    value {
      list {
        shape {
          dim {
            size: -1
          }
          dim {
            size: 1
          }
        }
      }
    }
  }
}
node {
  name: "dnn/input_from_feature_columns/input_layer/hydrophobicity/ExpandDims/dim"
  op: "Const"
  attr {
    key: "_output_shapes"
    value {
      list {
        shape {
        }
      }
    }
  }
  attr {
    key: "dtype"
    value {
      type: DT_INT32
    }
  }
  attr {
    key: "value"
    value {
      tensor {
        dtype: DT_INT32
        tensor_shape {
        }
        int_val: -1
      }
    }
  }
}
node {
  name: "dnn/input_from_feature_columns/input_layer/hydrophobicity/ExpandDims"
  op: "ExpandDims"
  input: "IteratorGetNext:3"
  input: "dnn/input_from_feature_columns/input_layer/hydrophobicity/ExpandDims/dim"
  attr {
    key: "T"
    value {
      type: DT_DOUBLE
    }
  }
  attr {
    key: "Tdim"
    value {
      type: DT_INT32
    }
  }
  attr {
    key: "_output_shapes"
    value {
      list {
        shape {
          dim {
            size: -1
          }
          dim {
            size: 1
          }
        }
      }
    }
  }
}
node {
  name: "dnn/input_from_feature_columns/input_layer/hydrophobicity/ToFloat"
  op: "Cast"
  input: "dnn/input_from_feature_columns/input_layer/hydrophobicity/ExpandDims"
  attr {
    key: "DstT"
    value {
      type: DT_FLOAT
    }
  }
  attr {
    key: "SrcT"
    value {
      type: DT_DOUBLE
    }
  }
  attr {
    key: "Truncate"
    value {
      b: false
    }
  }
  attr {
    key: "_output_shapes"
    value {
      list {
        shape {
          dim {
            size: -1
          }
          dim {
            size: 1
          }
        }
      }
    }
  }
}
node {
  name: "dnn/input_from_feature_columns/input_layer/hydrophobicity/Shape"
  op: "Shape"
  input: "dnn/input_from_feature_columns/input_layer/hydrophobicity/ToFloat"
  attr {
    key: "T"
    value {
      type: DT_FLOAT
    }
  }
  attr {
    key: "_output_shapes"
    value {
      list {
        shape {
          dim {
            size: 2
          }
        }
      }
    }
  }
  attr {
    key: "out_type"
    value {
      type: DT_INT32
    }
  }
}
node {
  name: "dnn/input_from_feature_columns/input_layer/hydrophobicity/strided_slice/stack"
  op: "Const"
  attr {
    key: "_output_shapes"
    value {
      list {
        shape {
          dim {
            size: 1
          }
        }
      }
    }
  }
  attr {
    key: "dtype"
    value {
      type: DT_INT32
    }
  }
  attr {
    key: "value"
    value {
      tensor {
        dtype: DT_INT32
        tensor_shape {
          dim {
            size: 1
          }
        }
        int_val: 0
      }
    }
  }
}
node {
  name: "dnn/input_from_feature_columns/input_layer/hydrophobicity/strided_slice/stack_1"
  op: "Const"
  attr {
    key: "_output_shapes"
    value {
      list {
        shape {
          dim {
            size: 1
          }
        }
      }
    }
  }
  attr {
    key: "dtype"
    value {
      type: DT_INT32
    }
  }
  attr {
    key: "value"
    value {
      tensor {
        dtype: DT_INT32
        tensor_shape {
          dim {
            size: 1
          }
        }
        int_val: 1
      }
    }
  }
}
node {
  name: "dnn/input_from_feature_columns/input_layer/hydrophobicity/strided_slice/stack_2"
  op: "Const"
  attr {
    key: "_output_shapes"
    value {
      list {
        shape {
          dim {
            size: 1
          }
        }
      }
    }
  }
  attr {
    key: "dtype"
    value {
      type: DT_INT32
    }
  }
  attr {
    key: "value"
    value {
      tensor {
        dtype: DT_INT32
        tensor_shape {
          dim {
            size: 1
          }
        }
        int_val: 1
      }
    }
  }
}
node {
  name: "dnn/input_from_feature_columns/input_layer/hydrophobicity/strided_slice"
  op: "StridedSlice"
  input: "dnn/input_from_feature_columns/input_layer/hydrophobicity/Shape"
  input: "dnn/input_from_feature_columns/input_layer/hydrophobicity/strided_slice/stack"
  input: "dnn/input_from_feature_columns/input_layer/hydrophobicity/strided_slice/stack_1"
  input: "dnn/input_from_feature_columns/input_layer/hydrophobicity/strided_slice/stack_2"
  attr {
    key: "Index"
    value {
      type: DT_INT32
    }
  }
  attr {
    key: "T"
    value {
      type: DT_INT32
    }
  }
  attr {
    key: "_output_shapes"
    value {
      list {
        shape {
        }
      }
    }
  }
  attr {
    key: "begin_mask"
    value {
      i: 0
    }
  }
  attr {
    key: "ellipsis_mask"
    value {
